{
  "version": "1.0",
  "truncation": null,
  "padding": null,
  "added_tokens": [
    {
      "id": 0,
      "content": "<|endoftext|>",
      "single_word": false,
      "lstrip": false,
      "rstrip": false,
      "normalized": false,
      "special": true
    },
    {
      "id": 1,
      "content": "<|pad|>",
      "single_word": false,
      "lstrip": false,
      "rstrip": false,
      "normalized": false,
      "special": true
    }
  ],
  "normalizer": null,
  "pre_tokenizer": {
    "type": "ByteLevel",
    "add_prefix_space": false,
    "trim_offsets": true,
    "use_regex": true
  },
  "post_processor": null,
  "decoder": {
    "type": "ByteLevel",
    "add_prefix_space": true,
    "trim_offsets": true,
    "use_regex": true
  },
  "model": {
    "type": "BPE",
    "dropout": null,
    "unk_token": null,
    "continuing_subword_prefix": null,
    "end_of_word_suffix": null,
    "fuse_unk": false,
    "byte_fallback": false,
    "ignore_merges": false,
    "vocab": {
      "<|endoftext|>": 0,
      "<|pad|>": 1,
      "!": 2,
      "\"": 3,
      "#": 4,
      "$": 5,
      "%": 6,
      "&": 7,
      "'": 8,
      "(": 9,
      ")": 10,
      "*": 11,
      "+": 12,
      ",": 13,
      "-": 14,
      ".": 15,
      "/": 16,
      "0": 17,
      "1": 18,
      "2": 19,
      "3": 20,
      "4": 21,
      "5": 22,
      "6": 23,
      "7": 24,
      "8": 25,
      "9": 26,
      ":": 27,
      ";": 28,
      "<": 29,
      "=": 30,
      ">": 31,
      "?": 32,
      "@": 33,
      "A": 34,
      "B": 35,
      "C": 36,
      "D": 37,
      "E": 38,
      "F": 39,
      "G": 40,
      "H": 41,
      "I": 42,
      "J": 43,
      "K": 44,
      "L": 45,
      "M": 46,
      "N": 47,
      "O": 48,
      "P": 49,
      "Q": 50,
      "R": 51,
      "S": 52,
      "T": 53,
      "U": 54,
      "V": 55,
      "W": 56,
      "X": 57,
      "Y": 58,
      "Z": 59,
      "[": 60,
      "\\": 61,
      "]": 62,
      "^": 63,
      "_": 64,
      "`": 65,
      "a": 66,
      "b": 67,
      "c": 68,
      "d": 69,
      "e": 70,
      "f": 71,
      "g": 72,
      "h": 73,
      "i": 74,
      "j": 75,
      "k": 76,
      "l": 77,
      "m": 78,
      "n": 79,
      "o": 80,
      "p": 81,
      "q": 82,
      "r": 83,
      "s": 84,
      "t": 85,
      "u": 86,
      "v": 87,
      "w": 88,
      "x": 89,
      "y": 90,
      "z": 91,
      "{": 92,
      "|": 93,
      "}": 94,
      "~": 95,
      "¡": 96,
      "¢": 97,
      "£": 98,
      "¤": 99,
      "¥": 100,
      "¦": 101,
      "§": 102,
      "¨": 103,
      "©": 104,
      "ª": 105,
      "«": 106,
      "¬": 107,
      "®": 108,
      "¯": 109,
      "°": 110,
      "±": 111,
      "²": 112,
      "³": 113,
      "´": 114,
      "µ": 115,
      "¶": 116,
      "·": 117,
      "¸": 118,
      "¹": 119,
      "º": 120,
      "»": 121,
      "¼": 122,
      "½": 123,
      "¾": 124,
      "¿": 125,
      "Â": 126,
      "Ã": 127,
      "Ä": 128,
      "Å": 129,
      "Æ": 130,
      "Ç": 131,
      "È": 132,
      "É": 133,
      "Ê": 134,
      "Ë": 135,
      "Ì": 136,
      "Í": 137,
      "Î": 138,
      "Ï": 139,
      "Ð": 140,
      "Ñ": 141,
      "Ò": 142,
      "Ó": 143,
      "Ô": 144,
      "Õ": 145,
      "Ö": 146,
      "×": 147,
      "Ø": 148,
      "Ù": 149,
      "Ú": 150,
      "Û": 151,
      "Ü": 152,
      "Ý": 153,
      "Þ": 154,
      "à": 155,
      "á": 156,
      "â": 157,
      "ã": 158,
      "ä": 159,
      "å": 160,
      "æ": 161,
      "ç": 162,
      "è": 163,
      "é": 164,
      "ê": 165,
      "ë": 166,
      "ì": 167,
      "í": 168,
      "î": 169,
      "ï": 170,
      "ð": 171,
      "ó": 172,
      "ô": 173,
      "ā": 174,
      "Ă": 175,
      "ă": 176,
      "ĉ": 177,
      "Ċ": 178,
      "ċ": 179,
      "Č": 180,
      "č": 181,
      "ď": 182,
      "Đ": 183,
      "Ġ": 184,
      "ġ": 185,
      "Ģ": 186,
      "ģ": 187,
      "Ĥ": 188,
      "ĥ": 189,
      "Ħ": 190,
      "ħ": 191,
      "Ĩ": 192,
      "ĩ": 193,
      "Ī": 194,
      "ī": 195,
      "Ĭ": 196,
      "ĭ": 197,
      "Į": 198,
      "į": 199,
      "İ": 200,
      "ı": 201,
      "Ĳ": 202,
      "ĳ": 203,
      "Ĵ": 204,
      "ĵ": 205,
      "Ķ": 206,
      "ķ": 207,
      "ĸ": 208,
      "Ĺ": 209,
      "ĺ": 210,
      "Ļ": 211,
      "ļ": 212,
      "Ľ": 213,
      "ľ": 214,
      "Ŀ": 215,
      "ŀ": 216,
      "Ł": 217,
      "ł": 218,
      "Ń": 219,
      "ĠĠ": 220,
      "Ġt": 221,
      "Ġa": 222,
      "in": 223,
      "he": 224,
      "ĠĠĠĠ": 225,
      "re": 226,
      "on": 227,
      "Ġthe": 228,
      "er": 229,
      "at": 230,
      "Ġs": 231,
      "en": 232,
      "Ġo": 233,
      "Ġc": 234,
      "Ġw": 235,
      "it": 236,
      "or": 237,
      "is": 238,
      "es": 239,
      "ed": 240,
      "al": 241,
      "an": 242,
      "Ġp": 243,
      "Ġf": 244,
      "Ġb": 245,
      "Ġan": 246,
      "ing": 247,
      "Ġin": 248,
      "Ġof": 249,
      "ar": 250,
      "ou": 251,
      "ion": 252,
      "Ġm": 253,
      "Ġd": 254,
      "ic": 255,
      "--": 256,
      "ĠĠĠĠĠĠĠĠ": 257,
      "Ġto": 258,
      "le": 259,
      "Ġand": 260,
      "as": 261,
      "ro": 262,
      "Ġth": 263,
      "Ġh": 264,
      "ent": 265,
      "ct": 266,
      "Ġre": 267,
      "et": 268,
      "el": 269,
      "Ġn": 270,
      "st": 271,
      "om": 272,
      "il": 273,
      "Ġe": 274,
      "Ġl": 275,
      "id": 276,
      "ot": 277,
      "im": 278,
      "ve": 279,
      "ig": 280,
      "Ġis": 281,
      "ut": 282,
      "Ġg": 283,
      "Ġ(": 284,
      "ĠT": 285,
      "am": 286,
      "----": 287,
      "ĠI": 288,
      "ol": 289,
      "se": 290,
      "ation": 291,
      "ac": 292,
      "ly": 293,
      "âĢ": 294,
      "Ġfor": 295,
      "ur": 296,
      "ĠĠĠ": 297,
      "Ġbe": 298,
      "ow": 299,
      "ĠS": 300,
      "Ġthat": 301,
      "Ġu": 302,
      "Ġon": 303,
      "ad": 304,
      "ĠC": 305,
      "ĠA": 306,
      "Ġst": 307,
      "ver": 308,
      "ay": 309,
      "ith": 310,
      "ce": 311,
      "ul": 312,
      "ĠĠĠĠĠĠĠĠĠĠĠĠĠĠĠĠ": 313,
      "Ġ1": 314,
      "if": 315,
      "Ġy": 316,
      "Ġcon": 317,
      "Ġwith": 318,
      "ir": 319,
      "Ġas": 320,
      "od": 321,
      "ch": 322,
      "ter": 323,
      "Ġpro": 324,
      "00": 325,
      "Ġit": 326,
      "Ġ\"": 327,
      "ate": 328,
      "ab": 329,
      "her": 330,
      "ag": 331,
      "um": 332,
      "Ġal": 333,
      "ĠM": 334,
      "Ġ$": 335,
      "pe": 336,
      "Ġwe": 337,
      "em": 338,
      "ri": 339,
      "nd": 340,
      "Ġv": 341,
      "Ġwh": 342,
      "Ġ2": 343,
      "Ġyou": 344,
      "ĠP": 345,
      "res": 346,
      "pp": 347,
      "qu": 348,
      "==": 349,
      "ain": 350,
      "Ġde": 351,
      "est": 352,
      "Ġr": 353,
      "Ġex": 354,
      "ĠThe": 355,
      "ist": 356,
      "os": 357,
      "us": 358,
      "ĠB": 359,
      "Ġwas": 360,
      "Ġhe": 361,
      "ant": 362,
      "--------": 363,
      "Ġ\\": 364,
      "Ġor": 365,
      "Ġcom": 366,
      "Ġare": 367,
      "ht": 368,
      "Ġat": 369,
      "un": 370,
      "th": 371,
      "ers": 372,
      "iv": 373,
      "ment": 374,
      "**": 375,
      "oc": 376,
      "ess": 377,
      "Ġsu": 378,
      "ity": 379,
      "ĠH": 380,
      "Ġse": 381,
      "Ġ=": 382,
      "ill": 383,
      "op": 384,
      "Ġby": 385,
      "ore": 386,
      "ĠF": 387,
      "rom": 388,
      "ld": 389,
      "and": 390,
      "ĠD": 391,
      "ction": 392,
      "ke": 393,
      "ĠW": 394,
      "nt": 395,
      "Ġnot": 396,
      "Ġ-": 397,
      "Ġha": 398,
      "ive": 399,
      "end": 400,
      "ĠL": 401,
      "ort": 402,
      "ra": 403,
      "ĠR": 404,
      "ĊĠĠĠĠ": 405,
      "Ġne": 406,
      "pt": 407,
      "Ġthis": 408,
      "ĠN": 409,
      "Ġfrom": 410,
      "art": 411,
      "âĢĻ": 412,
      "ight": 413,
      "ud": 414,
      "ĊĠĠĠ": 415,
      "red": 416,
      "Ġsh": 417,
      "pl": 418,
      "ell": 419,
      "ies": 420,
      "ial": 421,
      "te": 422,
      "ĠG": 423,
      "Ġch": 424,
      "Ġhave": 425,
      "our": 426,
      "ated": 427,
      "ĠE": 428,
      "fe": 429,
      "all": 430,
      "ure": 431,
      "'s": 432,
      "ould": 433,
      "ine": 434,
      "Ġle": 435,
      "per": 436,
      "{\\": 437,
      "Ġ*": 438,
      "Ġ0": 439,
      "ust": 440,
      "ge": 441,
      "og": 442,
      ").": 443,
      "Ġcan": 444,
      "ame": 445,
      "ue": 446,
      "ack": 447,
      "ical": 448,
      "age": 449,
      "ĠO": 450,
      "rou": 451,
      "iz": 452,
      "ich": 453,
      "ath": 454,
      "cl": 455,
      "ĊĠĠĠĠĠĠĠĠ": 456,
      "Ġ3": 457,
      "Ġtr": 458,
      "ib": 459,
      "able": 460,
      "ome": 461,
      "Ġcl": 462,
      "ard": 463,
      "ĠĠĠĠĠĠĠĠĠĠĠĠĠĠĠĠĠĠĠĠĠĠĠĠĠĠĠĠĠĠĠĠ": 464,
      "Ġus": 465,
      "out": 466,
      "ie": 467,
      "Ġres": 468,
      "ase": 469,
      "Ġwhe": 470,
      "ass": 471,
      "Ġab": 472,
      "Ġj": 473,
      "ult": 474,
      "Ġ{": 475,
      "ost": 476,
      "Ġk": 477,
      "act": 478,
      ");": 479,
      "=\"": 480,
      "Ġpl": 481,
      "ap": 482,
      "Ġme": 483,
      "Ġcomp": 484,
      "ther": 485,
      "ans": 486,
      "ide": 487,
      "Ġad": 488,
      "Ġcont": 489,
      "Ġall": 490,
      "ast": 491,
      "ĊĠ": 492,
      "The": 493,
      "01": 494,
      "====": 495,
      "orm": 496,
      "Ġwere": 497,
      "ign": 498,
      "Ġ[": 499,
      "Ġim": 500,
      ".\"": 501,
      "ĠJ": 502,
      "ĊĠĠĠĠĠĠĠ": 503,
      "Ġdo": 504,
      "ĠâĢ": 505,
      "ub": 506,
      "ak": 507,
      "ind": 508,
      "ĠU": 509,
      "ition": 510,
      "ip": 511,
      "Ġhas": 512,
      "Ġwhich": 513,
      "ice": 514,
      "one": 515,
      "ary": 516,
      "Ġ+": 517,
      "..": 518,
      "cc": 519,
      "ph": 520,
      "//": 521,
      "Ġbut": 522,
      "ous": 523,
      "are": 524,
      "ens": 525,
      "Ġint": 526,
      "Ġwor": 527,
      "ime": 528,
      "ĠIn": 529,
      "ong": 530,
      "----------------": 531,
      "Ġ4": 532,
      "Ġwill": 533,
      "_{": 534,
      "con": 535,
      "du": 536,
      "ok": 537,
      "ress": 538,
      "Ġdis": 539,
      "ty": 540,
      "ne": 541,
      "ations": 542,
      "ence": 543,
      "ff": 544,
      "ĉĉ": 545,
      "Ġgo": 546,
      "ile": 547,
      "int": 548,
      "Ġ<": 549,
      "ru": 550,
      "Ġout": 551,
      "),": 552,
      "av": 553,
      "ance": 554,
      "}}": 555,
      "ep": 556,
      "ose": 557,
      "au": 558,
      "gh": 559,
      "ents": 560,
      "ace": 561,
      "Ġif": 562,
      "ber": 563,
      "Ġen": 564,
      "ĠTh": 565,
      "Ġper": 566,
      "Ġ5": 567,
      "Ġone": 568,
      "ally": 569,
      "port": 570,
      "so": 571,
      "ord": 572,
      "Âł": 573,
      "ia": 574,
      "Ġun": 575,
      "xt": 576,
      "Ġhis": 577,
      "ory": 578,
      "Ġthey": 579,
      "ach": 580,
      "ely": 581,
      "ear": 582,
      "ions": 583,
      "ire": 584,
      "ect": 585,
      "Ġso": 586,
      "ang": 587,
      "Ġapp": 588,
      "Ġev": 589,
      "Ġup": 590,
      "form": 591,
      "ail": 592,
      "ry": 593,
      "Ġyour": 594,
      "Ġtheir": 595,
      "Ġqu": 596,
      "lic": 597,
      "Ġar": 598,
      "âĢĿ": 599,
      "Ġmore": 600,
      "Ġpart": 601,
      "ors": 602,
      "ĠK": 603,
      "ake": 604,
      "ll": 605,
      "ref": 606,
      "math": 607,
      "ite": 608,
      "ĠĠĠĠĠĠĠ": 609,
      "ys": 610,
      "own": 611,
      "Ġag": 612,
      "Ġother": 613,
      "very": 614,
      "Ġli": 615,
      "ound": 616,
      "Ġ}": 617,
      "ount": 618,
      "ree": 619,
      "ren": 620,
      "ft": 621,
      "vel": 622,
      "urn": 623,
      "Ġsp": 624,
      "ĠSt": 625,
      "Ġman": 626,
      "ata": 627,
      "cre": 628,
      "com": 629,
      "Ġsa": 630,
      "Ġwho": 631,
      "Ġhad": 632,
      "Ġbeen": 633,
      "Ġalso": 634,
      "ks": 635,
      "Ġpre": 636,
      "Ġthere": 637,
      "erv": 638,
      "Ġany": 639,
      "Ġwould": 640,
      "we": 641,
      "ates": 642,
      "ĠV": 643,
      "Ġno": 644,
      "ook": 645,
      "[@": 646,
      "Ġmy": 647,
      "ild": 648,
      "Ġ$\\": 649,
      "ef": 650,
      "Ġwhen": 651,
      "Ġabout": 652,
      "ject": 653,
      "ple": 654,
      "nder": 655,
      "low": 656,
      "eth": 657,
      "\\]": 658,
      "10": 659,
      "Ġtime": 660,
      "Ġ'": 661,
      "rent": 662,
      "ific": 663,
      "##": 664,
      "Ġthan": 665,
      "Ġob": 666,
      "wo": 667,
      "Ġ6": 668,
      "ater": 669,
      "ict": 670,
      "Ġits": 671,
      "ring": 672,
      "clud": 673,
      "Ġ&": 674,
      "'t": 675,
      "Ġover": 676,
      "erm": 677,
      "ĊĊ": 678,
      "row": 679,
      "Ġass": 680,
      "Ġsome": 681,
      "Ġsc": 682,
      "}$": 683,
      "ays": 684,
      "^{": 685,
      "ĠâĢľ": 686,
      "fter": 687,
      "In": 688,
      "rib": 689,
      "Ġ19": 690,
      "Ġam": 691,
      "Ġbet": 692,
      "Ġind": 693,
      "Ġsy": 694,
      "ces": 695,
      "Ġspe": 696,
      "Ġgen": 697,
      "ob": 698,
      "ove": 699,
      "</": 700,
      "Ġnew": 701,
      "get": 702,
      "Ġdif": 703,
      "old": 704,
      "irst": 705,
      "fect": 706,
      "Ġte": 707,
      "ĊĠĠĠĠĠĠĠĠĠĠĠ": 708,
      "lect": 709,
      "Ġinter": 710,
      "Ġoff": 711,
      "ps": 712,
      "vers": 713,
      "ied": 714,
      "Ġfe": 715,
      "Ġget": 716,
      "Ġacc": 717,
      "Ġsub": 718,
      "12": 719,
      "Ġkn": 720,
      "reat": 721,
      "Ġact": 722,
      "ode": 723,
      "Ġpe": 724,
      "ause": 725,
      "hat": 726,
      "Ġdef": 727,
      "ings": 728,
      "Ġcomm": 729,
      "ĠY": 730,
      "Ġinto": 731,
      "Ġthem": 732,
      "Ġro": 733,
      "19": 734,
      "Ġcons": 735,
      "ick": 736,
      "ĠIt": 737,
      "Ġrec": 738,
      "iss": 739,
      "ink": 740,
      "Ġunder": 741,
      "Ġour": 742,
      "Ġdes": 743,
      "Ġmay": 744,
      "ov": 745,
      "ced": 746,
      "ex": 747,
      "Ġonly": 748,
      "Ġtwo": 749,
      "Ġval": 750,
      "ual": 751,
      "pon": 752,
      "ari": 753,
      "ative": 754,
      "Ġrel": 755,
      "Ġ7": 756,
      "Ġwork": 757,
      "iew": 758,
      "Ġher": 759,
      "ert": 760,
      "Ġwhat": 761,
      "Ġadd": 762,
      "ma": 763,
      "Ġbec": 764,
      "pect": 765,
      "Ġyear": 766,
      "itt": 767,
      "ĊĠĠĠĠĠ": 768,
      "Ġlike": 769,
      "Ġret": 770,
      "elf": 771,
      "ĠCh": 772,
      "Ġpos": 773,
      "Ġsaid": 774,
      "ular": 775,
      "Ġmod": 776,
      "Ġstud": 777,
      "ark": 778,
      "hed": 779,
      "pro": 780,
      "__": 781,
      "igh": 782,
      "ec": 783,
      "Ġreg": 784,
      "========": 785,
      "oint": 786,
      "cess": 787,
      "Ġinv": 788,
      "ish": 789,
      "unction": 790,
      "Ġco": 791,
      "ĠThis": 792,
      "Ġ8": 793,
      "ont": 794,
      "Ġjust": 795,
      "stem": 796,
      "Ġem": 797,
      "Ġuse": 798,
      "Ġtrans": 799,
      "Ġpr": 800,
      "Ġbl": 801,
      "Ġfirst": 802,
      "ood": 803,
      "ating": 804,
      "ock": 805,
      "Ġph": 806,
      "}\\": 807,
      "20": 808,
      "Ġform": 809,
      "Ġthese": 810,
      "Ġ201": 811,
      "Ġsuch": 812,
      "fr": 813,
      "ased": 814,
      "Ġpres": 815,
      "ian": 816,
      "ĊĠĠĠĠĠĠĠĠĠĠĠĠĠĠĠ": 817,
      "der": 818,
      "ade": 819,
      "ĠWe": 820,
      "Ġdiffe": 821,
      "ck": 822,
      "11": 823,
      "aw": 824,
      "Ġclass": 825,
      "Ġwhere": 826,
      "Ġprov": 827,
      "ient": 828,
      "ility": 829,
      "Ġneed": 830,
      "ĠHe": 831,
      "Ġdet": 832,
      "Ġafter": 833,
      "](": 834,
      "gr": 835,
      "Ġsign": 836,
      "ople": 837,
      "oth": 838,
      "ss": 839,
      "Ġset": 840,
      "Ġ10": 841,
      "Ġhow": 842,
      "Ġ9": 843,
      "Ġcol": 844,
      "ident": 845,
      "Ġpol": 846,
      "\",": 847,
      "ween": 848,
      "Ġthen": 849,
      "ize": 850,
      "ffect": 851,
      "the": 852,
      "fig": 853,
      "Ġrem": 854,
      "ype": 855,
      "Ġpat": 856,
      "Ġatt": 857,
      "ments": 858,
      "ption": 859,
      "up": 860,
      "Ġexp": 861,
      "000": 862,
      "eg": 863,
      "ough": 864,
      "Ġcould": 865,
      "Ġresult": 866,
      "ise": 867,
      "type": 868,
      "olog": 869,
      "les": 870,
      "Ġ|": 871,
      "ution": 872,
      "ublic": 873,
      "Ġbetween": 874,
      "Ġshe": 875,
      "Ġ\\[": 876,
      "ious": 877,
      "ĠĠĠĠĠĠĠĠĠĠĠĠĠĠĠĠĠĠĠĠĠĠĠĠĠĠĠĠĠĠĠĠĠĠĠĠĠĠĠĠĠĠĠĠĠĠĠĠĠĠĠĠĠĠĠĠĠĠĠĠĠĠĠĠ": 878,
      "St": 879,
      "()": 880,
      "Ġcell": 881,
      "Ġsupp": 882,
      "iel": 883,
      "ix": 884,
      "Ġinclud": 885,
      "ollow": 886,
      "right": 887,
      "Ġused": 888,
      "round": 889,
      "ange": 890,
      "Ġfl": 891,
      "ible": 892,
      "als": 893,
      "Ġnum": 894,
      "Ġshow": 895,
      "\">": 896,
      "ms": 897,
      "****": 898,
      "Ġknow": 899,
      "Ġdata": 900,
      "Ġpeople": 901,
      "sp": 902,
      "Ġdid": 903,
      "Ġ.": 904,
      "Ċĉĉ": 905,
      "Ġhim": 906,
      "ble": 907,
      "cy": 908,
      "ues": 909,
      "ons": 910,
      "Ġshould": 911,
      "ax": 912,
      "ourt": 913,
      "ning": 914,
      "oy": 915,
      "ER": 916,
      "Ġbu": 917,
      "hen": 918,
      "ract": 919,
      "){": 920,
      "rough": 921,
      "ull": 922,
      "tern": 923,
      "ics": 924,
      ".,": 925,
      "Ġac": 926,
      "Ġfact": 927,
      "Ġcor": 928,
      "str": 929,
      "Ġsur": 930,
      "Ġsee": 931,
      "Ġdist": 932,
      "Ġrequ": 933,
      "Ċĉ": 934,
      "Ġsim": 935,
      "Ġusing": 936,
      "13": 937,
      "Ġfollow": 938,
      "inal": 939,
      "ield": 940,
      "Ġbecause": 941,
      "its": 942,
      "Ġspec": 943,
      "err": 944,
      "Ġmost": 945,
      "15": 946,
      "Ġback": 947,
      "Ġfunction": 948,
      "ox": 949,
      "ities": 950,
      "ful": 951,
      "ures": 952,
      "Ġi": 953,
      "ruct": 954,
      "ever": 955,
      "16": 956,
      "--------------------------------": 957,
      "ool": 958,
      ")$": 959,
      "pos": 960,
      "Ġreturn": 961,
      "Ġsystem": 962,
      "Ġwell": 963,
      "uring": 964,
      "Ġthrough": 965,
      "ĊĠĠĠĠĠĠĠĠĠĠĠĠĠĠĠĠ": 966,
      "Ġsm": 967,
      "14": 968,
      "Ġtest": 969,
      "other": 970,
      "Ġ[@": 971,
      "Ġext": 972,
      "Ġgener": 973,
      "put": 974,
      "ãģ": 975,
      "rit": 976,
      "arg": 977,
      "Ġprodu": 978,
      "Ġend": 979,
      "ited": 980,
      "hes": 981,
      "Ġright": 982,
      "ev": 983,
      "\"}": 984,
      "Ġagain": 985,
      "roup": 986,
      "Ġinst": 987,
      "ator": 988,
      "cal": 989,
      "wn": 990,
      "ants": 991,
      "li": 992,
      "]{": 993,
      "(\\": 994,
      "IN": 995,
      "Ġdoes": 996,
      "Ġconst": 997,
      "Ġhigh": 998,
      "cond": 999,
      "ĠUn": 1000,
      "Th": 1001,
      "Ġeach": 1002,
      "ĠĠĠĠĠ": 1003,
      "aint": 1004,
      "ized": 1005,
      "ational": 1006,
      "Ġcase": 1007,
      "text": 1008,
      "Ġdifferent": 1009,
      "io": 1010,
      "mer": 1011,
      "Ġent": 1012,
      "ined": 1013,
      "Ġstate": 1014,
      "Ġmin": 1015,
      "ork": 1016,
      "ew": 1017,
      "Ġeffect": 1018,
      "25": 1019,
      "Ġmake": 1020,
      "imes": 1021,
      "par": 1022,
      "ower": 1023,
      "Ġeven": 1024,
      "to": 1025,
      "ically": 1026,
      "uch": 1027,
      "Ġ200": 1028,
      "ctions": 1029,
      "frac": 1030,
      "riv": 1031,
      "Ġke": 1032,
      "\":": 1033,
      "18": 1034,
      "ĠSe": 1035,
      "Ġevery": 1036,
      "rol": 1037,
      "let": 1038,
      "ars": 1039,
      "fore": 1040,
      "ily": 1041,
      "Ġ:": 1042,
      "ins": 1043,
      "Ġcall": 1044,
      "ethod": 1045,
      "read": 1046,
      "Ġcur": 1047,
      "ta": 1048,
      "ON": 1049,
      "Ġstr": 1050,
      "Ġway": 1051,
      "Ġgr": 1052,
      "Ġfind": 1053,
      "Ġpoint": 1054,
      "Ġwant": 1055,
      "Ġnow": 1056,
      "ug": 1057,
      "ute": 1058,
      "uc": 1059,
      "],": 1060,
      "Ġlook": 1061,
      "Ġhere": 1062,
      "sc": 1063,
      "set": 1064,
      "...": 1065,
      "und": 1066,
      "Ġsame": 1067,
      "ients": 1068,
      "Ġdon": 1069,
      "Ġ@": 1070,
      "Ġthose": 1071,
      "arch": 1072,
      "Ġap": 1073,
      "Ġloc": 1074,
      "](#": 1075,
      "ason": 1076,
      "ention": 1077,
      "ince": 1078,
      "ng": 1079,
      "$\\": 1080,
      "Ġanal": 1081,
      "Ġdec": 1082,
      "->": 1083,
      "Ġlong": 1084,
      "mathb": 1085,
      "ym": 1086,
      "day": 1087,
      "velop": 1088,
      "ward": 1089,
      "ages": 1090,
      "cept": 1091,
      "Ġinte": 1092,
      "))": 1093,
      "Ġ/": 1094,
      "::": 1095,
      "ample": 1096,
      "Ġvari": 1097,
      "Ġbeing": 1098,
      "Ġvery": 1099,
      "ices": 1100,
      "Ġexper": 1101,
      "pr": 1102,
      "Ġaut": 1103,
      "eng": 1104,
      "ature": 1105,
      "17": 1106,
      "Ġmon": 1107,
      "ines": 1108,
      "Ġboth": 1109,
      "Ġfound": 1110,
      "Ġpartic": 1111,
      "Ġincre": 1112,
      "Ġyears": 1113,
      "val": 1114,
      "Ġbefore": 1115,
      "_{\\": 1116,
      "30": 1117,
      "Ġmany": 1118,
      "tr": 1119,
      "irect": 1120,
      "cent": 1121,
      "ife": 1122,
      "Ġtri": 1123,
      "oci": 1124,
      "Ġdi": 1125,
      "Ġappro": 1126,
      "ense": 1127,
      "Ġpar": 1128,
      "Ġpers": 1129,
      "led": 1130,
      "rest": 1131,
      "Ġbel": 1132,
      "app": 1133,
      "]\\]": 1134,
      "oid": 1135,
      "ting": 1136,
      "ases": 1137,
      "Ġser": 1138,
      "air": 1139,
      "Ġmed": 1140,
      "Ġnumber": 1141,
      "ained": 1142,
      "alth": 1143,
      "Ġmem": 1144,
      "Ġchar": 1145,
      "rm": 1146,
      "ĊĊĠĠĠ": 1147,
      "Ġx": 1148,
      "Ġ_": 1149,
      "erg": 1150,
      "32": 1151,
      "AT": 1152,
      "Ġfil": 1153,
      "atic": 1154,
      "Ġplay": 1155,
      "Ġgu": 1156,
      "ared": 1157,
      "Ġmat": 1158,
      "use": 1159,
      "OR": 1160,
      "min": 1161,
      "Ġel": 1162,
      "Ġ12": 1163,
      "yp": 1164,
      "}{": 1165,
      "Ġhel": 1166,
      "sh": 1167,
      "Ġgood": 1168,
      "ĠCom": 1169,
      "âĢī": 1170,
      "yl": 1171,
      "We": 1172,
      "Ġop": 1173,
      "Ġvalue": 1174,
      "upp": 1175,
      "rence": 1176,
      "ash": 1177,
      "It": 1178,
      "Ġcar": 1179,
      "37": 1180,
      "Ġrespon": 1181,
      "AR": 1182,
      "aking": 1183,
      "over": 1184,
      "ified": 1185,
      "50": 1186,
      "?\"": 1187,
      "Ġpublic": 1188,
      "ĠFor": 1189,
      "Ġdown": 1190,
      "Ġprocess": 1191,
      "ĠLet": 1192,
      "formation": 1193,
      "Ġprote": 1194,
      "]{}": 1195,
      "ave": 1196,
      "left": 1197,
      "ĠâĢĵ": 1198,
      "cer": 1199,
      "ateg": 1200,
      "ness": 1201,
      "ams": 1202,
      "fl": 1203,
      "ank": 1204,
      "Ġche": 1205,
      "Ġthink": 1206,
      "Ġins": 1207,
      "ÃĹ": 1208,
      "ism": 1209,
      "Ġmade": 1210,
      "ement": 1211,
      "Ġ//": 1212,
      "ES": 1213,
      "Ġreport": 1214,
      "Ġgiv": 1215,
      "ument": 1216,
      "ody": 1217,
      "way": 1218,
      "ually": 1219,
      "ression": 1220,
      "Ġ\\[[@": 1221,
      "Ġname": 1222,
      "ĠĠĠĠĠĠ": 1223,
      "Ġrep": 1224,
      "Ġmodel": 1225,
      "Ġlevel": 1226,
      "Ġwhile": 1227,
      "24": 1228,
      "ively": 1229,
      "ric": 1230,
      "Ġdevelop": 1231,
      "Ġsecond": 1232,
      "ner": 1233,
      "lement": 1234,
      "---": 1235,
      "Ġcourt": 1236,
      "ired": 1237,
      "oun": 1238,
      "of": 1239,
      "Ġsupport": 1240,
      "Ġhand": 1241,
      "Ġpresent": 1242,
      "ght": 1243,
      "Ġstart": 1244,
      "Ġorder": 1245,
      "Ġdisc": 1246,
      "',": 1247,
      "igned": 1248,
      "cul": 1249,
      "Ġcount": 1250,
      "Ġstudy": 1251,
      "Ġread": 1252,
      "(\"": 1253,
      "://": 1254,
      ".âĢĿ": 1255,
      "Ġthree": 1256,
      "Ġown": 1257,
      "Ġserv": 1258,
      "Ġmuch": 1259,
      ",\\": 1260,
      "Ġdep": 1261,
      "ond": 1262,
      "Ġest": 1263,
      "NA": 1264,
      "line": 1265,
      "ĠÂ": 1266,
      "Ġposs": 1267,
      "oad": 1268,
      "ved": 1269,
      "ĠIf": 1270,
      "Ġmethod": 1271,
      "Ġsol": 1272,
      "ision": 1273,
      "gg": 1274,
      "ffic": 1275,
      "ah": 1276,
      "ĠAl": 1277,
      "Ġant": 1278,
      "ĠPro": 1279,
      "Ġ**": 1280,
      "Ġref": 1281,
      "ale": 1282,
      "ency": 1283,
      "201": 1284,
      "man": 1285,
      "Ġduring": 1286,
      "CR": 1287,
      "ret": 1288,
      "cri": 1289,
      "uss": 1290,
      "ww": 1291,
      "ole": 1292,
      "Ġet": 1293,
      "gan": 1294,
      "ality": 1295,
      "Ġequ": 1296,
      "ray": 1297,
      "(-": 1298,
      "med": 1299,
      "Ġwithout": 1300,
      "ains": 1301,
      "ĠAnd": 1302,
      "Ġactiv": 1303,
      "ider": 1304,
      "ead": 1305,
      "view": 1306,
      "ven": 1307,
      "Ġ20": 1308,
      "any": 1309,
      "Ġterm": 1310,
      "ization": 1311,
      "br": 1312,
      "Ġhelp": 1313,
      "ton": 1314,
      "ential": 1315,
      "aining": 1316,
      "lear": 1317,
      "amp": 1318,
      "$,": 1319,
      "ĠAs": 1320,
      "Ġcells": 1321,
      "Ġnon": 1322,
      "ify": 1323,
      "abel": 1324,
      "Ġz": 1325,
      "ouse": 1326,
      "Ġcre": 1327,
      "ided": 1328,
      "$.": 1329,
      "dition": 1330,
      "ters": 1331,
      "Ġpatients": 1332,
      "Ġimport": 1333,
      "Ġrun": 1334,
      "ists": 1335,
      "22": 1336,
      "Ġchild": 1337,
      "Ġproper": 1338,
      "IT": 1339,
      "name": 1340,
      "Ġtype": 1341,
      "alk": 1342,
      "Ġsay": 1343,
      "Ġlast": 1344,
      "Ġperform": 1345,
      "rt": 1346,
      "Ġlet": 1347,
      "What": 1348,
      "ource": 1349,
      "Ġprev": 1350,
      "not": 1351,
      "80": 1352,
      "ĠBut": 1353,
      "ackage": 1354,
      "ĠHow": 1355,
      "ĠAn": 1356,
      "Let": 1357,
      "Ġgroup": 1358,
      "Ġav": 1359,
      "ather": 1360,
      "Ġline": 1361,
      "amb": 1362,
      "Ġoper": 1363,
      "Ġproble": 1364,
      "Ġear": 1365,
      "cial": 1366,
      "ane": 1367,
      "Ġbr": 1368,
      "idence": 1369,
      "Ġtake": 1370,
      "33": 1371,
      "Ġlead": 1372,
      "40": 1373,
      "ames": 1374,
      "ability": 1375,
      "EN": 1376,
      "Ġfr": 1377,
      "ving": 1378,
      "be": 1379,
      "Ġagainst": 1380,
      "raph": 1381,
      "Ġmet": 1382,
      "ross": 1383,
      "Ġsmall": 1384,
      "Ġmust": 1385,
      "Ġcontrol": 1386,
      "Ġgl": 1387,
      "ĠYou": 1388,
      "tt": 1389,
      "Ġsignific": 1390,
      "oot": 1391,
      "Ġiss": 1392,
      "\\[": 1393,
      "Ġstill": 1394,
      "de": 1395,
      "Ġday": 1396,
      "Ġperson": 1397,
      "Ex": 1398,
      ",\"": 1399,
      "Ġ15": 1400,
      "Ã©": 1401,
      "ek": 1402,
      "oh": 1403,
      "ĠTr": 1404,
      "0000": 1405,
      "itive": 1406,
      "Ġcent": 1407,
      "acter": 1408,
      "ST": 1409,
      "ulation": 1410,
      "Ġexpl": 1411,
      "Ġsom": 1412,
      "Ġappe": 1413,
      "aim": 1414,
      "ml": 1415,
      "ger": 1416,
      "Ch": 1417,
      "Con": 1418,
      "ination": 1419,
      "Ġpur": 1420,
      "AL": 1421,
      "Ġinformation": 1422,
      "âĢľ": 1423,
      "Pro": 1424,
      ")\\": 1425,
      "hip": 1426,
      "ysis": 1427,
      "ann": 1428,
      "Ġpost": 1429,
      "Ġcr": 1430,
      "Ġdirect": 1431,
      "ier": 1432,
      "23": 1433,
      "ÃĹÂ": 1434,
      "ides": 1435,
      "60": 1436,
      "urther": 1437,
      "work": 1438,
      "âĢĶ": 1439,
      "serv": 1440,
      "99": 1441,
      "eta": 1442,
      "Ġinc": 1443,
      "pha": 1444,
      "Ġconf": 1445,
      "Ġstand": 1446,
      "less": 1447,
      "Ġlaw": 1448,
      "Ġfin": 1449,
      "ots": 1450,
      "Ġresults": 1451,
      "Ġerr": 1452,
      "Ġmeas": 1453,
      "ets": 1454,
      "This": 1455,
      "Ġfam": 1456,
      "yn": 1457,
      "atch": 1458,
      "land": 1459,
      "AN": 1460,
      "Ġ,": 1461,
      "son": 1462,
      "Fig": 1463,
      "chn": 1464,
      "####": 1465,
      "ission": 1466,
      "ience": 1467,
      "Ġquest": 1468,
      "].": 1469,
      "ĠQ": 1470,
      "Ġca": 1471,
      "();": 1472,
      "Ġsignificant": 1473,
      "Ġed": 1474,
      "Ġtreat": 1475,
      "Ġfollowing": 1476,
      "ium": 1477,
      "ron": 1478,
      "ural": 1479,
      "ote": 1480,
      "rem": 1481,
      "Ġ18": 1482,
      "Ġgoing": 1483,
      "ral": 1484,
      "irc": 1485,
      "Ġident": 1486,
      "duct": 1487,
      "mathcal": 1488,
      "agn": 1489,
      "Ġaround": 1490,
      "ording": 1491,
      "200": 1492,
      "Ġmult": 1493,
      "Ġdeterm": 1494,
      "64": 1495,
      "ior": 1496,
      "Ġallow": 1497,
      "Ġcare": 1498,
      "Ġdev": 1499,
      "ID": 1500,
      "ately": 1501,
      "ished": 1502,
      "Ġwr": 1503,
      "Ġlife": 1504,
      "que": 1505,
      "Ġcontin": 1506,
      "'m": 1507,
      "for": 1508,
      "ĠWh": 1509,
      "Ġworld": 1510,
      "27": 1511,
      "ĊĠĠ": 1512,
      "ĠNew": 1513,
      "Ġbre": 1514,
      "Ġstat": 1515,
      "arge": 1516,
      "akes": 1517,
      "Ġlim": 1518,
      "Ġ#": 1519,
      "}(": 1520,
      "Ġelect": 1521,
      "aj": 1522,
      "Ġdem": 1523,
      "Ġ</": 1524,
      "aterial": 1525,
      "Ġreal": 1526,
      "ital": 1527,
      "ds": 1528,
      "arm": 1529,
      "iff": 1530,
      "Ġredu": 1531,
      "Ġhealth": 1532,
      "Ġsince": 1533,
      "ured": 1534,
      "ploy": 1535,
      "az": 1536,
      "ology": 1537,
      "Ġ14": 1538,
      "ration": 1539,
      "Ġwithin": 1540,
      "Ġhum": 1541,
      "********": 1542,
      "Ġcondition": 1543,
      "self": 1544,
      "lex": 1545,
      "Ġinvest": 1546,
      "Ġpass": 1547,
      "Ġopen": 1548,
      "Ġanother": 1549,
      "meric": 1550,
      "Ġinterest": 1551,
      "Ġgreat": 1552,
      "Ġself": 1553,
      "da": 1554,
      "âĢĵ": 1555,
      "eral": 1556,
      "Ġaddition": 1557,
      "28": 1558,
      "ott": 1559,
      "chool": 1560,
      "Ġtry": 1561,
      "ule": 1562,
      "$$": 1563,
      "ently": 1564,
      "ĠIs": 1565,
      "ivers": 1566,
      "Ġlist": 1567,
      "Ġcurrent": 1568,
      "Ġrece": 1569,
      "Ġstruct": 1570,
      "bl": 1571,
      "Ġsl": 1572,
      "cur": 1573,
      "Ġincluding": 1574,
      "ives": 1575,
      "here": 1576,
      "AS": 1577,
      "ived": 1578,
      "Ġbas": 1579,
      "Ġdel": 1580,
      "Ġfield": 1581,
      "He": 1582,
      "htt": 1583,
      "Ġadv": 1584,
      "Ġart": 1585,
      "arent": 1586,
      "Ġexample": 1587,
      "35": 1588,
      "alpha": 1589,
      "ither": 1590,
      "Ġtra": 1591,
      "resent": 1592,
      "Ġgiven": 1593,
      ",âĢĿ": 1594,
      "29": 1595,
      "package": 1596,
      "Ġgover": 1597,
      "face": 1598,
      "ĠX": 1599,
      "amet": 1600,
      "Ġmight": 1601,
      "ves": 1602,
      "lection": 1603,
      "21": 1604,
      "def": 1605,
      "26": 1606,
      "Ġocc": 1607,
      "You": 1608,
      "ĠSh": 1609,
      "Ġ*/": 1610,
      "IC": 1611,
      "Ġmark": 1612,
      "LE": 1613,
      "crib": 1614,
      "Ġ16": 1615,
      "gen": 1616,
      "Ġbeh": 1617,
      "vert": 1618,
      "Ġtem": 1619,
      "____": 1620,
      "Ġmean": 1621,
      "gram": 1622,
      "rel": 1623,
      "Ġimp": 1624,
      "bers": 1625,
      "34": 1626,
      "Ġtoo": 1627,
      "ably": 1628,
      "ribut": 1629,
      "ends": 1630,
      "================": 1631,
      "Ġbus": 1632,
      "roll": 1633,
      "Ġrespect": 1634,
      "ways": 1635,
      "Ġvis": 1636,
      "Ġcommun": 1637,
      "ilar": 1638,
      "Ġarg": 1639,
      "Ġplace": 1640,
      "Ġhead": 1641,
      "38": 1642,
      "ething": 1643,
      "Ġve": 1644,
      "Ġclaim": 1645,
      "ocument": 1646,
      "Ġ{#": 1647,
      "Ġreally": 1648,
      "ĊĊĠ": 1649,
      "ĠZ": 1650,
      "dd": 1651,
      "]\\].": 1652,
      "ĠCl": 1653,
      "AC": 1654,
      "Ġassoci": 1655,
      "lease": 1656,
      "ĠThey": 1657,
      "âĪ": 1658,
      "Ġtop": 1659,
      "ĠDe": 1660,
      "Ġhig": 1661,
      "stand": 1662,
      "ety": 1663,
      "Ġchang": 1664,
      "RE": 1665,
      "bs": 1666,
      "ĠHowever": 1667,
      "ope": 1668,
      "Ġless": 1669,
      "Ġpower": 1670,
      "Ġobject": 1671,
      "ery": 1672,
      "hor": 1673,
      ")/": 1674,
      "ength": 1675,
      "ivid": 1676,
      "Ġlow": 1677,
      "Ġcal": 1678,
      "iness": 1679,
      "Ġhapp": 1680,
      "Ġbest": 1681,
      "36": 1682,
      "Ġfile": 1683,
      "Ġpot": 1684,
      "els": 1685,
      "Ġhome": 1686,
      "ought": 1687,
      "ĠCon": 1688,
      "icro": 1689,
      "Ġgovern": 1690,
      "Ġfew": 1691,
      "mathbb": 1692,
      "att": 1693,
      "Ġmonth": 1694,
      "ĠPh": 1695,
      "Ġwom": 1696,
      "Ġapplic": 1697,
      "Ġ$$\\": 1698,
      "arget": 1699,
      "ault": 1700,
      "ury": 1701,
      "thing": 1702,
      "Ġindic": 1703,
      "sec": 1704,
      "'re": 1705,
      "ategory": 1706,
      "Ġbased": 1707,
      "ĠĠĠĠĠĠĠĠĠĠĠĠĠĠĠĠĠĠĠĠĠĠĠĠ": 1708,
      "Re": 1709,
      "Ġgrow": 1710,
      "^{\\": 1711,
      "05": 1712,
      "Ġleft": 1713,
      "ĠRe": 1714,
      "Ġfour": 1715,
      "ĠSo": 1716,
      "by": 1717,
      "ference": 1718,
      "ump": 1719,
      "ĠAmeric": 1720,
      "leg": 1721,
      "alse": 1722,
      "Ġprob": 1723,
      "ittle": 1724,
      "ts": 1725,
      "Ġnext": 1726,
      "ems": 1727,
      "Ġanalysis": 1728,
      "ised": 1729,
      "requ": 1730,
      "che": 1731,
      "div": 1732,
      "Ġsing": 1733,
      "oss": 1734,
      "ertain": 1735,
      "ĠOn": 1736,
      "ik": 1737,
      "mu": 1738,
      "Ġobt": 1739,
      "ĠNo": 1740,
      "Ġfail": 1741,
      "Ġimportant": 1742,
      "osed": 1743,
      "Ġopt": 1744,
      "Ġsomething": 1745,
      "Ġproduct": 1746,
      "Ġput": 1747,
      "95": 1748,
      "45": 1749,
      "Ġview": 1750,
      "Ġ--": 1751,
      "Ġconne": 1752,
      "ification": 1753,
      "Ġmot": 1754,
      "ask": 1755,
      "ession": 1756,
      "Ġ11": 1757,
      "span": 1758,
      "ĠUS": 1759,
      "col": 1760,
      "Ġcap": 1761,
      "abl": 1762,
      "Ġunt": 1763,
      "Ġpop": 1764,
      "ending": 1765,
      "usepackage": 1766,
      "ĠThere": 1767,
      "ples": 1768,
      "plic": 1769,
      "Ġtechn": 1770,
      "Ġparticular": 1771,
      "Ġobserv": 1772,
      "ĠWhat": 1773,
      "Ġpath": 1774,
      "ĠEx": 1775,
      "As": 1776,
      "Ġcommon": 1777,
      "ext": 1778,
      "version": 1779,
      "part": 1780,
      "egin": 1781,
      "Ġexpect": 1782,
      "Ġbo": 1783,
      "Ġwhether": 1784,
      "rop": 1785,
      "Ġchange": 1786,
      "Ġ17": 1787,
      "ware": 1788,
      "Ġeas": 1789,
      "cing": 1790,
      "Ġbelie": 1791,
      "ambda": 1792,
      "Ġprof": 1793,
      "ee": 1794,
      "Ġsugg": 1795,
      "ergy": 1796,
      "Ġsuggest": 1797,
      "label": 1798,
      "Cl": 1799,
      "Ġlight": 1800,
      "Ġbuild": 1801,
      "Ġnever": 1802,
      "Ġbetter": 1803,
      "mb": 1804,
      "Ġevidence": 1805,
      "},": 1806,
      "add": 1807,
      "used": 1808,
      "Ġturn": 1809,
      "Ġ30": 1810,
      "):": 1811,
      "Ġinvol": 1812,
      "Ġsit": 1813,
      "reg": 1814,
      "90": 1815,
      "opy": 1816,
      "IS": 1817,
      "('": 1818,
      "Ġwater": 1819,
      "Ġtrue": 1820,
      "mun": 1821,
      "yt": 1822,
      "hib": 1823,
      "Ġask": 1824,
      "cont": 1825,
      "ered": 1826,
      "orn": 1827,
      "âĪĴ": 1828,
      "Ġabove": 1829,
      "ĊĠĠĠĠĠĠĠĠĠ": 1830,
      "ED": 1831,
      "ended": 1832,
      "To": 1833,
      "ird": 1834,
      "Ġlarge": 1835,
      "ccess": 1836,
      "Ġold": 1837,
      "Com": 1838,
      "igma": 1839,
      "86": 1840,
      "Ġreason": 1841,
      "Ġproblem": 1842,
      "Ġ{\\": 1843,
      "Ġ!": 1844,
      "ho": 1845,
      "ats": 1846,
      "Ġcome": 1847,
      "Ġlocal": 1848,
      "play": 1849,
      "Ġdescrib": 1850,
      "Ġleg": 1851,
      "ern": 1852,
      "ĠâĢĶ": 1853,
      "ension": 1854,
      "Ġsk": 1855,
      "ream": 1856,
      "Ġthings": 1857,
      "Ġgive": 1858,
      "Ġconsider": 1859,
      "arn": 1860,
      "ĠInd": 1861,
      "co": 1862,
      "ush": 1863,
      "ĠAll": 1864,
      "Ġfree": 1865,
      "inf": 1866,
      "action": 1867,
      "Ġris": 1868,
      "elta": 1869,
      "Ġpossible": 1870,
      "Ġrese": 1871,
      "por": 1872,
      "ĠPl": 1873,
      "ours": 1874,
      "Ġtot": 1875,
      "75": 1876,
      "aces": 1877,
      "ĠĠĠĠĠĠĠĠĠĠĠĠĠĠĠĠĠĠĠĠĠĠĠĠĠĠĠĠĠĠĠĠĠĠĠĠĠĠĠĠĠĠĠĠĠĠĠĠĠĠĠĠĠĠĠĠĠĠĠĠĠĠĠĠĠĠĠĠĠĠĠĠĠĠĠĠĠĠĠĠĠĠĠĠĠĠĠĠĠĠĠĠĠĠĠĠĠĠĠĠĠĠĠĠĠĠĠĠĠĠĠĠĠĠĠĠĠĠĠĠĠĠĠĠĠĠĠĠ": 1878,
      "Ġlittle": 1879,
      "Ġleast": 1880,
      "=\\": 1881,
      "ormal": 1882,
      "iron": 1883,
      "CT": 1884,
      "Ġclear": 1885,
      "HE": 1886,
      "Ġposition": 1887,
      "refore": 1888,
      "ividual": 1889,
      "Ġbi": 1890,
      "imal": 1891,
      "ailable": 1892,
      "Ġdays": 1893,
      "Ġpay": 1894,
      "new": 1895,
      "Ġ13": 1896,
      "Ġimpro": 1897,
      "ãĤ": 1898,
      "begin": 1899,
      "Ġinf": 1900,
      "čĊ": 1901,
      "Ġdr": 1902,
      "Ġdue": 1903,
      "Ġtyp": 1904,
      "ser": 1905,
      "}$$": 1906,
      "sum": 1907,
      "Ġtreatment": 1908,
      "ances": 1909,
      "Ġgot": 1910,
      "icle": 1911,
      "aring": 1912,
      "Ġbro": 1913,
      "04": 1914,
      "me": 1915,
      "ene": 1916,
      "mathbf": 1917,
      "Ġhaving": 1918,
      "Ġopp": 1919,
      "Ġrepresent": 1920,
      "Ġsize": 1921,
      "}^{": 1922,
      "Ġcharacter": 1923,
      "pi": 1924,
      "Ġmov": 1925,
      "Ġbig": 1926,
      "string": 1927,
      "ina": 1928,
      "illion": 1929,
      "Ġsimilar": 1930,
      "aps": 1931,
      "Ġgre": 1932,
      "ĠTo": 1933,
      "Ġmain": 1934,
      "itor": 1935,
      "aut": 1936,
      "Ġrest": 1937,
      "Ġide": 1938,
      "Ġhy": 1939,
      "amma": 1940,
      "Ġ25": 1941,
      "Ġcode": 1942,
      "Ġweek": 1943,
      "If": 1944,
      "Ġ==": 1945,
      "Ġelse": 1946,
      "epend": 1947,
      "ĠAr": 1948,
      "org": 1949,
      "Ġsum": 1950,
      "Ġkeep": 1951,
      "Ġchildren": 1952,
      "Ġsever": 1953,
      "ajor": 1954,
      "sel": 1955,
      "Ġhist": 1956,
      "ological": 1957,
      "Ġinit": 1958,
      "!\"": 1959,
      "back": 1960,
      "Ġfurther": 1961,
      "Ġhuman": 1962,
      "Ġrecord": 1963,
      "pm": 1964,
      "Name": 1965,
      "ĊĊĠĠĠĠĠĠĠ": 1966,
      "idth": 1967,
      "iod": 1968,
      "Ġshown": 1969,
      "Ġoffic": 1970,
      "Ġden": 1971,
      "clude": 1972,
      "AP": 1973,
      "bar": 1974,
      "Ġorgan": 1975,
      "Ġquestion": 1976,
      "Type": 1977,
      "ĠState": 1978,
      "Ġprogram": 1979,
      "inc": 1980,
      "yle": 1981,
      "_\\": 1982,
      "Ġcalled": 1983,
      "ĠApp": 1984,
      "////": 1985,
      "ctor": 1986,
      "Tr": 1987,
      "Ġprom": 1988,
      "Ġtrial": 1989,
      "key": 1990,
      "Ġsw": 1991,
      "Ġemploy": 1992,
      "Ġes": 1993,
      "Ġuntil": 1994,
      "ember": 1995,
      "Ġhard": 1996,
      "Ġnet": 1997,
      "acy": 1998,
      "Ġprevious": 1999,
      "nal": 2000,
      "Ġcho": 2001,
      "Ġindividual": 2002,
      "Ġpa": 2003,
      "Ġknown": 2004,
      "88": 2005,
      "aligned": 2006,
      "Ġprovide": 2007,
      "ĠCol": 2008,
      "ception": 2009,
      "Ġalways": 2010,
      "ĠThese": 2011,
      "];": 2012,
      "96": 2013,
      "Ġeither": 2014,
      "rap": 2015,
      "Ġcomb": 2016,
      "atory": 2017,
      "97": 2018,
      "Ġfeel": 2019,
      "ĠShe": 2020,
      "SE": 2021,
      "Ġdiff": 2022,
      "Ġcost": 2023,
      "ystem": 2024,
      "cript": 2025,
      "mit": 2026,
      "Ġschool": 2027,
      "Ġgovernment": 2028,
      "lev": 2029,
      "data": 2030,
      "Ġjud": 2031,
      "etic": 2032,
      "Ġgame": 2033,
      "iction": 2034,
      "44": 2035,
      "Ġpotential": 2036,
      "-\\": 2037,
      "respon": 2038,
      "ready": 2039,
      "iple": 2040,
      "ape": 2041,
      "Ġside": 2042,
      "Ġproject": 2043,
      "class": 2044,
      "ns": 2045,
      "}_{": 2046,
      "mon": 2047,
      "Ġdefend": 2048,
      "Ġaction": 2049,
      "ten": 2050,
      "ĊĠĠĠĠĠĠĠĠĠĠĠĠĠĠĠĠĠĠĠ": 2051,
      "Ġpriv": 2052,
      "mod": 2053,
      "opt": 2054,
      "For": 2055,
      "Ġkey": 2056,
      "Ġavailable": 2057,
      "oney": 2058,
      "Ġfamily": 2059,
      "Category": 2060,
      "ĠĠĠĠĠĠĠĠĠĠĠ": 2061,
      "though": 2062,
      "roups": 2063,
      "Ġexpression": 2064,
      "qrt": 2065,
      "Ġ)": 2066,
      "oper": 2067,
      "100": 2068,
      "usion": 2069,
      "Ġspecific": 2070,
      "Ġteam": 2071,
      "uck": 2072,
      "ĠAd": 2073,
      "Ġfood": 2074,
      "uro": 2075,
      "Ġdiv": 2076,
      "ĠFr": 2077,
      "Ġvalues": 2078,
      "Ġben": 2079,
      "oor": 2080,
      "Ċĉĉĉĉ": 2081,
      "eb": 2082,
      "Ġable": 2083,
      "Ġgeneral": 2084,
      "uff": 2085,
      "Ġ`": 2086,
      "But": 2087,
      "rict": 2088,
      "Ġlik": 2089,
      "Ġsingle": 2090,
      "Ġsequ": 2091,
      "Ġpred": 2092,
      "Ġtimes": 2093,
      "ĠRes": 2094,
      "ries": 2095,
      "Ġhigher": 2096,
      "And": 2097,
      "Ġsuper": 2098,
      "Ġwon": 2099,
      "Ġmeans": 2100,
      "65": 2101,
      "../": 2102,
      "ler": 2103,
      "ĠCourt": 2104,
      "ey": 2105,
      "itted": 2106,
      "Ġrad": 2107,
      "Ġ24": 2108,
      "Ġseveral": 2109,
      "98": 2110,
      "70": 2111,
      "'ve": 2112,
      "ering": 2113,
      "eps": 2114,
      "Ġcases": 2115,
      "raw": 2116,
      "Ġunderstand": 2117,
      "Ġarea": 2118,
      "utes": 2119,
      "ental": 2120,
      "Ġorig": 2121,
      "Ġneg": 2122,
      "RO": 2123,
      "Ġplan": 2124,
      "Ġvol": 2125,
      "ĠUnited": 2126,
      "Ġsure": 2127,
      "indow": 2128,
      "Ġhold": 2129,
      "94": 2130,
      "Ġphys": 2131,
      "ney": 2132,
      "Ġlot": 2133,
      "Id": 2134,
      "Ġmajor": 2135,
      "var": 2136,
      "pped": 2137,
      "Ġmaterial": 2138,
      "ables": 2139,
      "ourse": 2140,
      "hy": 2141,
      "angle": 2142,
      "osp": 2143,
      "Ġla": 2144,
      "'ll": 2145,
      "Ġfull": 2146,
      "ressed": 2147,
      "Ġ%": 2148,
      "ĠSc": 2149,
      "ored": 2150,
      "idd": 2151,
      "import": 2152,
      "Ġstandard": 2153,
      "bib": 2154,
      "ION": 2155,
      "Ġspace": 2156,
      "pone": 2157,
      "fficient": 2158,
      "Ġbody": 2159,
      "Ġfinal": 2160,
      "Res": 2161,
      "Ġ\\\\": 2162,
      "Ġtotal": 2163,
      "ocial": 2164,
      "ĠWhen": 2165,
      "Ġerror": 2166,
      "Ġamong": 2167,
      "Ġnear": 2168,
      "essage": 2169,
      "Ġwhy": 2170,
      "Ġder": 2171,
      "Ġabs": 2172,
      "ison": 2173,
      "ences": 2174,
      "Ġexist": 2175,
      "uppose": 2176,
      "Ġcirc": 2177,
      "Ġprim": 2178,
      "outh": 2179,
      "Ġfar": 2180,
      "Ġ=>": 2181,
      "Ġreview": 2182,
      "AD": 2183,
      "itle": 2184,
      "iting": 2185,
      "Ġaccess": 2186,
      "phi": 2187,
      "ators": 2188,
      "Ġ>": 2189,
      "Ġalready": 2190,
      "alf": 2191,
      "iversity": 2192,
      "ĠThat": 2193,
      "Ġdise": 2194,
      "lambda": 2195,
      "Ġperiod": 2196,
      "ga": 2197,
      "Ġ100": 2198,
      "vent": 2199,
      "ava": 2200,
      "Ġinfl": 2201,
      "lected": 2202,
      "mission": 2203,
      "}_": 2204,
      "Ġstudies": 2205,
      "rences": 2206,
      "An": 2207,
      "ling": 2208,
      "sub": 2209,
      "Ġdiscuss": 2210,
      "Ġsent": 2211,
      "rug": 2212,
      "String": 2213,
      "empt": 2214,
      "Ġreported": 2215,
      "mm": 2216,
      "Ġdone": 2217,
      "ibility": 2218,
      "LL": 2219,
      "Ġpri": 2220,
      "unt": 2221,
      "aken": 2222,
      "Ġassociated": 2223,
      "ĠSp": 2224,
      "Ġmove": 2225,
      "Ġtarget": 2226,
      "this": 2227,
      "Ġshort": 2228,
      "Ġtre": 2229,
      "ume": 2230,
      "55": 2231,
      "verage": 2232,
      "viron": 2233,
      "Ġsays": 2234,
      "Ġparamet": 2235,
      "Ġfri": 2236,
      "ĠCal": 2237,
      "asing": 2238,
      "Ġmen": 2239,
      "Ġlater": 2240,
      "Ġbusiness": 2241,
      "ayer": 2242,
      "Ġalong": 2243,
      "ivity": 2244,
      "mathrm": 2245,
      "Ġenergy": 2246,
      "urs": 2247,
      "Ġrate": 2248,
      "ustom": 2249,
      "side": 2250,
      "ĠAt": 2251,
      "Ġcrit": 2252,
      "Ġinvestig": 2253,
      "Ġamount": 2254,
      "Ġstrong": 2255,
      "iving": 2256,
      "ique": 2257,
      "ift": 2258,
      "Ġdom": 2259,
      "Ġaway": 2260,
      "ĠOr": 2261,
      "Ġfac": 2262,
      "http": 2263,
      "conom": 2264,
      "iol": 2265,
      "Ġresponse": 2266,
      "Ġlevels": 2267,
      "ids": 2268,
      "})": 2269,
      "af": 2270,
      "ued": 2271,
      "Ġmass": 2272,
      "sw": 2273,
      "Ġoften": 2274,
      "table": 2275,
      "rect": 2276,
      "Ġmanag": 2277,
      "Ġwomen": 2278,
      "Ġfund": 2279,
      "cription": 2280,
      "aintiff": 2281,
      "cd": 2282,
      "ET": 2283,
      "Ġactivity": 2284,
      "Ġdidn": 2285,
      "Ġcertain": 2286,
      "ĠBl": 2287,
      "68": 2288,
      "Ġthought": 2289,
      "Ġ${\\": 2290,
      "test": 2291,
      "77": 2292,
      "ĠStates": 2293,
      "Val": 2294,
      "ister": 2295,
      "Ġpercent": 2296,
      "Ġinj": 2297,
      "ogn": 2298,
      "Ġexperim": 2299,
      "Ġvir": 2300,
      "ĠĠĠĠĠĠĠĠĠ": 2301,
      "Ġsubject": 2302,
      "ograph": 2303,
      "Ġlog": 2304,
      "Ġrequired": 2305,
      "orth": 2306,
      "Ġcontent": 2307,
      "Ġcheck": 2308,
      ")*": 2309,
      "Ġtell": 2310,
      "Ġdesign": 2311,
      "amples": 2312,
      "uation": 2313,
      "AM": 2314,
      "Ġpract": 2315,
      "Ġrequire": 2316,
      "48": 2317,
      "chan": 2318,
      "Ġport": 2319,
      "Cont": 2320,
      "angu": 2321,
      "OU": 2322,
      "Ġid": 2323,
      "^{-": 2324,
      "Ġissue": 2325,
      "rist": 2326,
      "ilon": 2327,
      "Ġthough": 2328,
      "icy": 2329,
      "39": 2330,
      "Ġsens": 2331,
      "\")": 2332,
      "Ġevent": 2333,
      "Ġgroups": 2334,
      "Ġhowever": 2335,
      "Ġthing": 2336,
      "ohn": 2337,
      "ising": 2338,
      "31": 2339,
      "iver": 2340,
      "Ġeng": 2341,
      "sequ": 2342,
      "Ġ([@": 2343,
      "return": 2344,
      "ribution": 2345,
      "]).": 2346,
      "Ġenc": 2347,
      "67": 2348,
      "aster": 2349,
      "Ġaccording": 2350,
      "ection": 2351,
      "Ġfore": 2352,
      "Ġdevelopment": 2353,
      "On": 2354,
      "Ġenough": 2355,
      "Ġage": 2356,
      "Ġrisk": 2357,
      "ands": 2358,
      "List": 2359,
      "Ġstring": 2360,
      "order": 2361,
      "Ġwar": 2362,
      "ĠCo": 2363,
      "ung": 2364,
      "}^": 2365,
      "ley": 2366,
      "Ġinclude": 2367,
      "Ġaccount": 2368,
      "Ġmicro": 2369,
      "Ġ50": 2370,
      "DE": 2371,
      "Ġkind": 2372,
      "Ġsuccess": 2373,
      "----------------------------------------------------------------": 2374,
      "go": 2375,
      "date": 2376,
      "Ġpress": 2377,
      "ding": 2378,
      "olution": 2379,
      "ores": 2380,
      "%)": 2381,
      "En": 2382,
      "ony": 2383,
      "omet": 2384,
      "Ġtold": 2385,
      "stit": 2386,
      "lete": 2387,
      "Ġsal": 2388,
      "anc": 2389,
      "Ġbase": 2390,
      "Ġsat": 2391,
      "ories": 2392,
      "Ġcourse": 2393,
      "Ġcompared": 2394,
      "sigma": 2395,
      "osis": 2396,
      "Ġlower": 2397,
      "ources": 2398,
      "vironment": 2399,
      "Ġ([": 2400,
      "Is": 2401,
      "Ġbook": 2402,
      "ians": 2403,
      "Ġmaking": 2404,
      "Ġterms": 2405,
      "ĠLe": 2406,
      "oms": 2407,
      "Ġconv": 2408,
      "ties": 2409,
      "Ġprovided": 2410,
      "ĠGod": 2411,
      "Ġworking": 2412,
      "Ġaff": 2413,
      "Ġsection": 2414,
      "OT": 2415,
      "Ġtext": 2416,
      "Ġupon": 2417,
      "uture": 2418,
      "How": 2419,
      "Ġmoney": 2420,
      "âĢ¦": 2421,
      "Ġauthor": 2422,
      "Ġdoesn": 2423,
      "Ġrelations": 2424,
      "85": 2425,
      "Ġtax": 2426,
      "Ġcoun": 2427,
      "Ġdetail": 2428,
      "><": 2429,
      "47": 2430,
      "pecial": 2431,
      "Ġsepar": 2432,
      "Ġresearch": 2433,
      "ival": 2434,
      "Ġlo": 2435,
      "sqrt": 2436,
      "atures": 2437,
      "ched": 2438,
      "Ġpast": 2439,
      "head": 2440,
      "Ġnecess": 2441,
      "Ġrole": 2442,
      "Ġrespons": 2443,
      "eq": 2444,
      "ING": 2445,
      "Ġcou": 2446,
      "inter": 2447,
      "II": 2448,
      "arrow": 2449,
      "umber": 2450,
      "cret": 2451,
      "Al": 2452,
      "Ġdri": 2453,
      "CC": 2454,
      "www": 2455,
      "gin": 2456,
      "IG": 2457,
      "ĠâĢĺ": 2458,
      "Ġcompon": 2459,
      "Ġbit": 2460,
      "Ġcomput": 2461,
      "most": 2462,
      "Ġcomplex": 2463,
      "Ġconditions": 2464,
      "66": 2465,
      "Ġcountry": 2466,
      "Ġann": 2467,
      "Ġrequest": 2468,
      "Ġlove": 2469,
      "ĠRep": 2470,
      "Ġtoget": 2471,
      "Ġrepl": 2472,
      "Ġtogether": 2473,
      "Ġseen": 2474,
      "time": 2475,
      "Ġmil": 2476,
      "html": 2477,
      "ai": 2478,
      "ubl": 2479,
      "Ġpoints": 2480,
      "Ġdou": 2481,
      "Ġpolit": 2482,
      "ĠÎ": 2483,
      "Ġexc": 2484,
      "Ġprotein": 2485,
      "ĠÐ": 2486,
      "Ġseason": 2487,
      "load": 2488,
      "medi": 2489,
      "cle": 2490,
      "value": 2491,
      "Ġagre": 2492,
      "Ġeffects": 2493,
      "Ġmor": 2494,
      "Ġuser": 2495,
      "Ġbecome": 2496,
      "Ġfoc": 2497,
      "Ġlarg": 2498,
      "Ġincrease": 2499,
      "Ġrange": 2500,
      "Ġshall": 2501,
      "Ġcannot": 2502,
      "Ar": 2503,
      "Ġproperty": 2504,
      "file": 2505,
      "Data": 2506,
      "Ġchanges": 2507,
      "gment": 2508,
      "Ġimage": 2509,
      "beta": 2510,
      "ache": 2511,
      "Ġfrequ": 2512,
      "rodu": 2513,
      "ĊĠĠĠĠĠĠĠĠĠĠĠĠĠĠĠĠĠĠĠĠĠĠĠĠĠĠĠĠĠĠĠĠ": 2514,
      "ĠSee": 2515,
      "wh": 2516,
      "{{\\": 2517,
      "Ġdeath": 2518,
      "Ġthird": 2519,
      "Ġbenef": 2520,
      "Ġflu": 2521,
      "Ġestim": 2522,
      "+\\": 2523,
      "Ġregard": 2524,
      "Ġbehav": 2525,
      "Ġtalk": 2526,
      "Ġjob": 2527,
      "Ġcy": 2528,
      "oll": 2529,
      "Ġpositive": 2530,
      "Ġearly": 2531,
      "cted": 2532,
      "\"}).": 2533,
      "Ġsource": 2534,
      "Ġcomplet": 2535,
      "Ġvoid": 2536,
      "Ġcult": 2537,
      "Ġhouse": 2538,
      "istic": 2539,
      "Ġregion": 2540,
      "Ġdoing": 2541,
      "pper": 2542,
      "ij": 2543,
      "ĊĠĠĠĠĠĠ": 2544,
      "td": 2545,
      "uration": 2546,
      "Ġmeasure": 2547,
      "enn": 2548,
      "mber": 2549,
      "ĠMr": 2550,
      "artment": 2551,
      "Ġfactors": 2552,
      "Ġair": 2553,
      "Ġservice": 2554,
      "69": 2555,
      "ortun": 2556,
      "Ġestabl": 2557,
      "Ġcalcul": 2558,
      "Ġmom": 2559,
      "msg": 2560,
      "bo": 2561,
      "ruction": 2562,
      "Ġq": 2563,
      "Ġphot": 2564,
      "Ġparticip": 2565,
      "Ġconduct": 2566,
      "ĠĠĠĠĠĠĠĠĠĠ": 2567,
      "Ġcompany": 2568,
      "Ġprivate": 2569,
      "Ġactually": 2570,
      "bit": 2571,
      "Ġcreate": 2572,
      "log": 2573,
      "ĠCan": 2574,
      "Ġhtt": 2575,
      "ror": 2576,
      "02": 2577,
      "ĠThen": 2578,
      "Ġep": 2579,
      "AB": 2580,
      "Ġnormal": 2581,
      "Ġincreased": 2582,
      "Ġspecial": 2583,
      "Ġmeet": 2584,
      "Ġmonths": 2585,
      "Ġstructure": 2586,
      "Ġothers": 2587,
      "Ġmechan": 2588,
      "Sh": 2589,
      "Ġversion": 2590,
      "Ċĉĉĉ": 2591,
      "ules": 2592,
      "icult": 2593,
      "ĠUniversity": 2594,
      "iation": 2595,
      "Ġobserved": 2596,
      "ining": 2597,
      "Ġsignal": 2598,
      "View": 2599,
      "AG": 2600,
      "Ġcorrespon": 2601,
      "Ġacross": 2602,
      "uf": 2603,
      "Ġmultiple": 2604,
      "Ġbreak": 2605,
      "Ġfix": 2606,
      "mat": 2607,
      "Ġcut": 2608,
      "Ġsurface": 2609,
      "ened": 2610,
      "There": 2611,
      "Ġdrug": 2612,
      "Ph": 2613,
      "minist": 2614,
      "Ġexperience": 2615,
      "uit": 2616,
      "Ġland": 2617,
      "equ": 2618,
      "ude": 2619,
      "377": 2620,
      "Ġprior": 2621,
      "mp": 2622,
      "Ġfive": 2623,
      "uses": 2624,
      "CH": 2625,
      "Ġcame": 2626,
      "Ġ||": 2627,
      "enc": 2628,
      "raft": 2629,
      "Ġconcer": 2630,
      "ground": 2631,
      "comm": 2632,
      "08": 2633,
      "roid": 2634,
      "Ġonce": 2635,
      "Ġnight": 2636,
      "App": 2637,
      "obal": 2638,
      "Ġwa": 2639,
      "off": 2640,
      "Ġquant": 2641,
      "dis": 2642,
      "42": 2643,
      "ependent": 2644,
      "Ġrather": 2645,
      "Ġbound": 2646,
      "pec": 2647,
      "Ġeconom": 2648,
      "ceed": 2649,
      "Ġdescribed": 2650,
      "bt": 2651,
      "Ġanti": 2652,
      "ops": 2653,
      "No": 2654,
      "Ġwent": 2655,
      "partial": 2656,
      "Ġlikely": 2657,
      "unch": 2658,
      "rho": 2659,
      "omega": 2660,
      "Ġbar": 2661,
      "ried": 2662,
      "~~": 2663,
      "Ġmakes": 2664,
      "ĠBe": 2665,
      "\\\\": 2666,
      "see": 2667,
      "Ġshows": 2668,
      "Ġeval": 2669,
      "Ġsocial": 2670,
      "Ġcity": 2671,
      "now": 2672,
      "ibr": 2673,
      "itch": 2674,
      "Ġfalse": 2675,
      "no": 2676,
      "Ġbelow": 2677,
      "></": 2678,
      "ĠAN": 2679,
      "anguage": 2680,
      "Ġpick": 2681,
      "imum": 2682,
      "ĠGen": 2683,
      "bject": 2684,
      "Ġapproach": 2685,
      "icense": 2686,
      "Ġshowed": 2687,
      "ones": 2688,
      "hing": 2689,
      "Ġyoung": 2690,
      "ino": 2691,
      "Ġra": 2692,
      "Ġmar": 2693,
      "plement": 2694,
      "atter": 2695,
      "inary": 2696,
      "Ġcause": 2697,
      "Ġdisease": 2698,
      "US": 2699,
      "Ġaffect": 2700,
      "posed": 2701,
      "irm": 2702,
      "Ġminutes": 2703,
      "Ġadded": 2704,
      ".)": 2705,
      "Ġwhole": 2706,
      "Ġsite": 2707,
      "Ġclin": 2708,
      "Ġapplication": 2709,
      "Ġtaken": 2710,
      "onstr": 2711,
      "001": 2712,
      ")}": 2713,
      "87": 2714,
      "Ġperformed": 2715,
      "Ġmatter": 2716,
      "net": 2717,
      "Ġtook": 2718,
      "Ġinitial": 2719,
      "Ġwrit": 2720,
      "Ġ$(": 2721,
      "\\_": 2722,
      "illed": 2723,
      "Ġdetect": 2724,
      "Ġmillion": 2725,
      "\");": 2726,
      "So": 2727,
      "Ġviol": 2728,
      "Col": 2729,
      "57": 2730,
      "Ġcamp": 2731,
      "Ġfactor": 2732,
      "Ġyet": 2733,
      "84": 2734,
      "Ġobtained": 2735,
      "idered": 2736,
      "uk": 2737,
      "Ġlimit": 2738,
      "fer": 2739,
      "ĠFig": 2740,
      "ogen": 2741,
      "ensity": 2742,
      "ening": 2743,
      "code": 2744,
      "ĠJohn": 2745,
      "ĠIN": 2746,
      "Ġmembers": 2747,
      "Ġfuture": 2748,
      "Ġvarious": 2749,
      "ĠMar": 2750,
      "Ġever": 2751,
      "Ġclos": 2752,
      "Ġdam": 2753,
      "ero": 2754,
      "Ġred": 2755,
      "aff": 2756,
      "Ġhom": 2757,
      "Ġver": 2758,
      "iter": 2759,
      "wards": 2760,
      "Ġsystems": 2761,
      "Ð¾": 2762,
      "MP": 2763,
      "uild": 2764,
      "Ġmut": 2765,
      "pping": 2766,
      "Ġdecre": 2767,
      "Ġmax": 2768,
      "year": 2769,
      "Ġweight": 2770,
      "Ġconsidered": 2771,
      "Ġrelated": 2772,
      "OP": 2773,
      "Ġaddress": 2774,
      "rix": 2775,
      "umn": 2776,
      "Ġintegr": 2777,
      "ama": 2778,
      "tau": 2779,
      "resh": 2780,
      "Ġdefendant": 2781,
      "ĠOne": 2782,
      "ript": 2783,
      "oph": 2784,
      "93": 2785,
      "ĠMay": 2786,
      "07": 2787,
      "ĠFl": 2788,
      "ĠAss": 2789,
      "Ġ(*": 2790,
      "Ġdevice": 2791,
      "Ġstates": 2792,
      "Ġtemper": 2793,
      "Ġparent": 2794,
      "ches": 2795,
      "Ġdeal": 2796,
      "rim": 2797,
      "Ġdemonstr": 2798,
      "amm": 2799,
      "Ġmus": 2800,
      "------------": 2801,
      ")(": 2802,
      "Ġey": 2803,
      "\";": 2804,
      "aced": 2805,
      "Ġcle": 2806,
      "Un": 2807,
      "include": 2808,
      "Ġflow": 2809,
      "Ġoccur": 2810,
      "Ġloss": 2811,
      "ĠAmerican": 2812,
      "perty": 2813,
      "ply": 2814,
      "Ġconcent": 2815,
      "apter": 2816,
      "Ġblood": 2817,
      "andom": 2818,
      "ires": 2819,
      "const": 2820,
      "Ġmarket": 2821,
      "Ġdefined": 2822,
      "xim": 2823,
      "Ġhalf": 2824,
      "Ġbelieve": 2825,
      "ĠAfter": 2826,
      "/*": 2827,
      "Ġscre": 2828,
      "onal": 2829,
      "Ġenvironment": 2830,
      "word": 2831,
      "ĠCent": 2832,
      "Ġtoday": 2833,
      "ĠChrist": 2834,
      "Im": 2835,
      "document": 2836,
      "By": 2837,
      "rec": 2838,
      "ĠBr": 2839,
      "Ġ$$": 2840,
      "ball": 2841,
      "****************": 2842,
      "Ġsex": 2843,
      "....": 2844,
      "Ġtw": 2845,
      "ĠTe": 2846,
      "Ġcross": 2847,
      "Ġ(-": 2848,
      "cular": 2849,
      "rc": 2850,
      "Ġimmun": 2851,
      "ards": 2852,
      "46": 2853,
      "ĠWith": 2854,
      "Ġbring": 2855,
      "ãĢ": 2856,
      "Ġsoft": 2857,
      "PS": 2858,
      "abor": 2859,
      "Ġspect": 2860,
      "dro": 2861,
      "Ġdifficult": 2862,
      "chie": 2863,
      "iding": 2864,
      "Ġclose": 2865,
      "une": 2866,
      "Ġconsist": 2867,
      "Ġur": 2868,
      "Ġcancer": 2869,
      "ĠEn": 2870,
      "Ġnat": 2871,
      "Ġmagn": 2872,
      "ĠĊ": 2873,
      "ulated": 2874,
      "ãĥ": 2875,
      "verse": 2876,
      "ounds": 2877,
      "Ġele": 2878,
      "Ġseem": 2879,
      "Ġrelationship": 2880,
      "Ġmaint": 2881,
      "Ġvar": 2882,
      "Ġdecision": 2883,
      "wise": 2884,
      "Ġdat": 2885,
      "ĠGr": 2886,
      "Ġsolution": 2887,
      "Ġtrying": 2888,
      "Ġblock": 2889,
      "Ġground": 2890,
      "sy": 2891,
      "ilt": 2892,
      "ober": 2893,
      "Ġassess": 2894,
      "itting": 2895,
      "Ġtrad": 2896,
      "where": 2897,
      "Ġrat": 2898,
      "mary": 2899,
      "92": 2900,
      "Ġmind": 2901,
      "util": 2902,
      "Ġincluded": 2903,
      "03": 2904,
      "Ġadditional": 2905,
      "Ġanything": 2906,
      "*,": 2907,
      "atus": 2908,
      "eed": 2909,
      "ached": 2910,
      "ĠCar": 2911,
      "sl": 2912,
      "Ġneeds": 2913,
      "Ġheart": 2914,
      "Ġsimple": 2915,
      "Ġdecl": 2916,
      "Ġ},": 2917,
      "Ġrespectively": 2918,
      "oo": 2919,
      "Ġce": 2920,
      "TR": 2921,
      "aging": 2922,
      "gl": 2923,
      "position": 2924,
      "ternal": 2925,
      "aged": 2926,
      "avor": 2927,
      "Ġhours": 2928,
      "Ġsubst": 2929,
      "nu": 2930,
      "theta": 2931,
      "ike": 2932,
      "Ġnetwork": 2933,
      "apt": 2934,
      "Ġcommunity": 2935,
      "}{\\": 2936,
      "Ġdefin": 2937,
      "gamma": 2938,
      "xi": 2939,
      "Ġchall": 2940,
      "Ġentire": 2941,
      "ĠPat": 2942,
      "Ġlooking": 2943,
      "miss": 2944,
      "Ġsix": 2945,
      "Ġexam": 2946,
      "09": 2947,
      "Ġinhib": 2948,
      "Ġnull": 2949,
      "Ġsignificantly": 2950,
      "my": 2951,
      "Ġthus": 2952,
      "ises": 2953,
      "lying": 2954,
      "Ġappl": 2955,
      "Ġhistory": 2956,
      "olve": 2957,
      "ĠMed": 2958,
      "OS": 2959,
      "cher": 2960,
      "Ġtable": 2961,
      "Ġmethods": 2962,
      "IL": 2963,
      "Ġill": 2964,
      "Ġgetting": 2965,
      "pose": 2966,
      "ux": 2967,
      "ĠÂ§": 2968,
      "Ð°": 2969,
      "Figure": 2970,
      "des": 2971,
      "ĠMan": 2972,
      "but": 2973,
      "Ġreceived": 2974,
      "ensive": 2975,
      "}}\\": 2976,
      "rs": 2977,
      "Ġlink": 2978,
      "IV": 2979,
      "Ġseries": 2980,
      "ication": 2981,
      "ĠBy": 2982,
      "Ġâ": 2983,
      "lim": 2984,
      "Value": 2985,
      "ledge": 2986,
      "ĠMy": 2987,
      "inding": 2988,
      "Ġ21": 2989,
      "ĠMore": 2990,
      "PE": 2991,
      "Ġvia": 2992,
      "izing": 2993,
      "selves": 2994,
      "mitted": 2995,
      "Ġworks": 2996,
      "ensure": 2997,
      "Ġelement": 2998,
      "ideo": 2999,
      "![": 3000,
      "Ġimprove": 3001,
      "pecially": 3002,
      "Ġindu": 3003,
      "Ġtherefore": 3004,
      "Ġsus": 3005,
      "body": 3006,
      "Ġcorrect": 3007,
      "41": 3008,
      "ocr": 3009,
      "uly": 3010,
      "Ġcontact": 3011,
      "Ġpan": 3012,
      "Ġcompl": 3013,
      "gress": 3014,
      "Ġnothing": 3015,
      "')": 3016,
      "56": 3017,
      "MS": 3018,
      "Ġproblems": 3019,
      "Get": 3020,
      "size": 3021,
      "Ġperformance": 3022,
      "delta": 3023,
      "Ġroom": 3024,
      "iles": 3025,
      "ĠEng": 3026,
      "Ġaccept": 3027,
      "hel": 3028,
      "Ġcustom": 3029,
      "Ġexpected": 3030,
      "Ġcontract": 3031,
      "ros": 3032,
      "ilde": 3033,
      "using": 3034,
      "Ġcompet": 3035,
      "yz": 3036,
      "Ġgrowth": 3037,
      "ME": 3038,
      "Int": 3039,
      "Ġhref": 3040,
      "ĠCount": 3041,
      "ĠInt": 3042,
      "Ġasked": 3043,
      "When": 3044,
      "________": 3045,
      "Ġface": 3046,
      "Ġdifference": 3047,
      "itten": 3048,
      "ĠMc": 3049,
      "Ġseems": 3050,
      "Ġang": 3051,
      "istance": 3052,
      "ribute": 3053,
      "Ġmiss": 3054,
      "Ðµ": 3055,
      "],[@": 3056,
      "'d": 3057,
      "Ġwin": 3058,
      "Ġissues": 3059,
      "Ġimplement": 3060,
      "ĠMon": 3061,
      "Ġtum": 3062,
      "Ġdeg": 3063,
      "isf": 3064,
      "All": 3065,
      "ocal": 3066,
      "ips": 3067,
      "ĠAct": 3068,
      "])": 3069,
      "Ġparty": 3070,
      "Ġpaper": 3071,
      "43": 3072,
      "bf": 3073,
      "ĠCor": 3074,
      "Ġ...": 3075,
      "06": 3076,
      "Se": 3077,
      "box": 3078,
      "fully": 3079,
      "Ġachie": 3080,
      "ender": 3081,
      "Table": 3082,
      "ĠDep": 3083,
      "Ġhost": 3084,
      "Ġcontr": 3085,
      "Ġinvolved": 3086,
      "leq": 3087,
      "Ġalmost": 3088,
      "Ġexec": 3089,
      "49": 3090,
      "param": 3091,
      "ilities": 3092,
      "UR": 3093,
      "amed": 3094,
      "ĠTHE": 3095,
      "^\\": 3096,
      "Ġeduc": 3097,
      "Ġlearn": 3098,
      "more": 3099,
      "ĠĠĠĠĠĠĠĠĠĠĠĠ": 3100,
      "Ġattack": 3101,
      "based": 3102,
      "Ġlength": 3103,
      "times": 3104,
      "field": 3105,
      "ites": 3106,
      "CL": 3107,
      "Ġpattern": 3108,
      "IR": 3109,
      "big": 3110,
      "Ġofficial": 3111,
      "Ġdig": 3112,
      "Ġbegin": 3113,
      "uments": 3114,
      "Ġremov": 3115,
      "Ġeff": 3116,
      "down": 3117,
      "ederal": 3118,
      "Wh": 3119,
      "Ġ27": 3120,
      "ynam": 3121,
      "Ġneeded": 3122,
      "Ġinput": 3123,
      "Ġitself": 3124,
      "Ġadminist": 3125,
      "ĠEuro": 3126,
      "Ġrecent": 3127,
      "Ġattempt": 3128,
      "Ġfig": 3129,
      "FF": 3130,
      "Ġpatient": 3131,
      "Ġinstead": 3132,
      "ief": 3133,
      "Ġfall": 3134,
      "anks": 3135,
      "Ġconfig": 3136,
      "irl": 3137,
      "Ġblack": 3138,
      "Ġlive": 3139,
      "Ġheld": 3140,
      "ĠCont": 3141,
      "ills": 3142,
      "Ġquality": 3143,
      "Ġstep": 3144,
      "infty": 3145,
      "ĠAm": 3146,
      "unc": 3147,
      "89": 3148,
      "with": 3149,
      "orld": 3150,
      "59": 3151,
      "ged": 3152,
      "width": 3153,
      "come": 3154,
      "state": 3155,
      "/>": 3156,
      "Ġinstall": 3157,
      "ales": 3158,
      "Ġdisplay": 3159,
      "ĠĠĠĠĠĠĠĠĠĠĠĠĠĠĠ": 3160,
      "Ġansw": 3161,
      "OL": 3162,
      "ĠThus": 3163,
      "53": 3164,
      "Ġwalk": 3165,
      "Ġfilm": 3166,
      "IP": 3167,
      "na": 3168,
      "ĠDo": 3169,
      "Ġgene": 3170,
      "With": 3171,
      "Ġservices": 3172,
      "ĠIm": 3173,
      "erc": 3174,
      "Ġstudents": 3175,
      "Ġsomeone": 3176,
      "odes": 3177,
      "Set": 3178,
      "Ġstory": 3179,
      "ĠNot": 3180,
      "Ġtool": 3181,
      "Ġintrodu": 3182,
      "ĠSte": 3183,
      "atively": 3184,
      "Ġphase": 3185,
      "Ġ22": 3186,
      "Ġidea": 3187,
      "Ġplaintiff": 3188,
      "atal": 3189,
      "Ġcomes": 3190,
      "Ġreve": 3191,
      "curity": 3192,
      "Ġassum": 3193,
      "ĠDef": 3194,
      "Ġadj": 3195,
      "Ġdim": 3196,
      "Ġste": 3197,
      "overed": 3198,
      "Ġrecogn": 3199,
      "Ġtaking": 3200,
      "ica": 3201,
      "ĠMin": 3202,
      "quad": 3203,
      "comes": 3204,
      "like": 3205,
      "Ġbad": 3206,
      "Ġdistrict": 3207,
      "su": 3208,
      "ned": 3209,
      "Ġproced": 3210,
      "Ġfront": 3211,
      "Ġoriginal": 3212,
      "pri": 3213,
      "Ġprobably": 3214,
      "Ġpolicy": 3215,
      "eks": 3216,
      "Ġ40": 3217,
      "augh": 3218,
      "ENT": 3219,
      "Ġoil": 3220,
      "Ġcolor": 3221,
      "Ġstarted": 3222,
      "Ġcontroll": 3223,
      "Ġprovides": 3224,
      "}$,": 3225,
      "Ġproduction": 3226,
      "Ġsample": 3227,
      "Ġlines": 3228,
      "Ġdepend": 3229,
      "ecause": 3230,
      "iqu": 3231,
      "Ġappear": 3232,
      "That": 3233,
      "Ġpubl": 3234,
      "54": 3235,
      "ying": 3236,
      "83": 3237,
      "Ġpage": 3238,
      "));": 3239,
      "Ġaverage": 3240,
      "Ġinflu": 3241,
      "Ġnecessary": 3242,
      "ĠPr": 3243,
      "Ġmoment": 3244,
      "icon": 3245,
      "Ġpolice": 3246,
      "anced": 3247,
      "urch": 3248,
      "lt": 3249,
      "Ġess": 3250,
      "Ġmotion": 3251,
      "Ġdistribution": 3252,
      "astic": 3253,
      "UT": 3254,
      "eter": 3255,
      "Ġdest": 3256,
      "ĠĠĠĠĠĠĠĠĠĠĠĠĠ": 3257,
      "function": 3258,
      "path": 3259,
      "Ġdocument": 3260,
      "Ġpredict": 3261,
      "xy": 3262,
      "ster": 3263,
      "Ġ23": 3264,
      "ĠYork": 3265,
      "82": 3266,
      "ges": 3267,
      "RNA": 3268,
      "SS": 3269,
      "Ġ26": 3270,
      "erred": 3271,
      "ĠNational": 3272,
      "Ġcorrel": 3273,
      "Ġload": 3274,
      "Ġpopulation": 3275,
      "uth": 3276,
      "Ġproperties": 3277,
      ",-": 3278,
      "utions": 3279,
      "Ġmodels": 3280,
      "px": 3281,
      "bed": 3282,
      "Ġproducts": 3283,
      "istics": 3284,
      "Ġpresence": 3285,
      "Ġoutput": 3286,
      "eration": 3287,
      "Ġcoll": 3288,
      "raction": 3289,
      "Ġmedia": 3290,
      "hem": 3291,
      "ĠOF": 3292,
      "Ġexact": 3293,
      "Ġsearch": 3294,
      "Ġprimary": 3295,
      "Ġ\"\"": 3296,
      "}$.": 3297,
      "ospital": 3298,
      "Ġindust": 3299,
      "oke": 3300,
      "Ġtypes": 3301,
      "pre": 3302,
      "Ġdire": 3303,
      "ĠPres": 3304,
      "ĠEurope": 3305,
      "list": 3306,
      "ulations": 3307,
      "Object": 3308,
      "Ġsequence": 3309,
      "ributed": 3310,
      "Ġespecially": 3311,
      "Ġsimply": 3312,
      "51": 3313,
      "aled": 3314,
      "ĠPol": 3315,
      "ĠCity": 3316,
      "Ġalleg": 3317,
      "define": 3318,
      "81": 3319,
      "point": 3320,
      "$-": 3321,
      "ĠDr": 3322,
      "Ġformer": 3323,
      "array": 3324,
      "Ġvalid": 3325,
      "Key": 3326,
      "ccording": 3327,
      "rite": 3328,
      "Ġwords": 3329,
      "Ġimpact": 3330,
      "Ġcharg": 3331,
      "AA": 3332,
      "At": 3333,
      "Ġindex": 3334,
      "Ġfoot": 3335,
      "Ġcompar": 3336,
      "Ġremain": 3337,
      "rror": 3338,
      "Ġeasy": 3339,
      "Â±": 3340,
      "dom": 3341,
      "ien": 3342,
      "Ġchem": 3343,
      "Ġconsum": 3344,
      "Ġpret": 3345,
      "91": 3346,
      "ĠCD": 3347,
      "Ġcomplete": 3348,
      "Ġeffort": 3349,
      "Ġfunctions": 3350,
      "inally": 3351,
      "Pl": 3352,
      "Ġevents": 3353,
      "ĠMe": 3354,
      "ults": 3355,
      "iet": 3356,
      "ĠJan": 3357,
      "ĠGu": 3358,
      "Ġtemperature": 3359,
      "Mod": 3360,
      "Ġ!=": 3361,
      "vious": 3362,
      "Ġdiagn": 3363,
      "76": 3364,
      "Ind": 3365,
      "book": 3366,
      "ÂłÂł": 3367,
      "ĠBo": 3368,
      "Ġlack": 3369,
      "oma": 3370,
      "52": 3371,
      "Ġstop": 3372,
      "error": 3373,
      "elt": 3374,
      "Ġquick": 3375,
      "Ġcopy": 3376,
      "comp": 3377,
      "Ps": 3378,
      "rown": 3379,
      "Ġpersonal": 3380,
      "Ġnuc": 3381,
      "Ġdetermined": 3382,
      "aves": 3383,
      "Ġwrong": 3384,
      "Ġacid": 3385,
      "earch": 3386,
      "Ġarray": 3387,
      "Ġcard": 3388,
      "Ġrunning": 3389,
      "Ġeffective": 3390,
      "Ġfeatures": 3391,
      "light": 3392,
      "Ġcontext": 3393,
      "reet": 3394,
      "Ġprint": 3395,
      "Ġoutside": 3396,
      "culate": 3397,
      "inks": 3398,
      "OC": 3399,
      "Ġpoly": 3400,
      "Delta": 3401,
      "iddle": 3402,
      "acc": 3403,
      "clusion": 3404,
      "Ġpack": 3405,
      "Ġconstit": 3406,
      "https": 3407,
      "Ġassert": 3408,
      "Ġareas": 3409,
      "arily": 3410,
      "Ġeverything": 3411,
      "ÑĤ": 3412,
      "Ġsamples": 3413,
      "Ġprinc": 3414,
      "($": 3415,
      "^*": 3416,
      "efore": 3417,
      "aving": 3418,
      "Ġsatisf": 3419,
      "ags": 3420,
      "Ġdate": 3421,
      "Ġcreated": 3422,
      "Ġprevent": 3423,
      "olic": 3424,
      "ĠĊĠĠĠĠĠĠĠĠĠĠĠĠĠĠĠ": 3425,
      "Ġquite": 3426,
      "top": 3427,
      "Ġlanguage": 3428,
      "Ġlonger": 3429,
      "ĠTrump": 3430,
      "Ġclinical": 3431,
      "Ġbasis": 3432,
      "Ġparameters": 3433,
      "Ġstrateg": 3434,
      "Ġincreasing": 3435,
      "ĠĠĠĠĠĠĠĠĠĠĠĠĠĠ": 3436,
      "ĠAb": 3437,
      "actions": 3438,
      "Ġstatic": 3439,
      "Ġmedical": 3440,
      "Ġrecomm": 3441,
      "osition": 3442,
      "ronic": 3443,
      "|\\": 3444,
      "Ġphysical": 3445,
      "Ġmemory": 3446,
      "Ġsil": 3447,
      "Ġrights": 3448,
      "Ġdetermine": 3449,
      "ĠInc": 3450,
      "Ġ28": 3451,
      "++": 3452,
      "Ġcreat": 3453,
      "OD": 3454,
      "sim": 3455,
      "Ġcred": 3456,
      "ii": 3457,
      "Ġstay": 3458,
      "ram": 3459,
      "74": 3460,
      "itude": 3461,
      "uel": 3462,
      "Ġsense": 3463,
      "Ġrandom": 3464,
      "////////": 3465,
      "ague": 3466,
      "Ġsett": 3467,
      "Ġgenes": 3468,
      "Ġhope": 3469,
      "ymb": 3470,
      "../../": 3471,
      "Ġframe": 3472,
      "Text": 3473,
      "My": 3474,
      "Ġmap": 3475,
      "ĠÃ": 3476,
      "Ġderiv": 3477,
      "Ġevalu": 3478,
      "Ġbuilding": 3479,
      "lier": 3480,
      "Ġapproxim": 3481,
      "čĊč": 3482,
      "Ġinside": 3483,
      "rows": 3484,
      "ula": 3485,
      "ese": 3486,
      "Ġidentified": 3487,
      "File": 3488,
      "Ġnatural": 3489,
      "CD": 3490,
      "rael": 3491,
      "ĠPar": 3492,
      "item": 3493,
      "Ġselect": 3494,
      "Ġ/>": 3495,
      "ana": 3496,
      "asons": 3497,
      "ĠSuppose": 3498,
      "72": 3499,
      "Ġpair": 3500,
      "Ġpresented": 3501,
      "ha": 3502,
      "otion": 3503,
      "trans": 3504,
      "lementary": 3505,
      "Ġmember": 3506,
      "term": 3507,
      "aign": 3508,
      "Ġstri": 3509,
      "IM": 3510,
      "aily": 3511,
      "fs": 3512,
      "Ġnews": 3513,
      "Ġisn": 3514,
      "Ġmg": 3515,
      "cm": 3516,
      "het": 3517,
      "Ġweeks": 3518,
      "âĢĲ": 3519,
      "dev": 3520,
      "Ġhot": 3521,
      "Ġpressure": 3522,
      "ili": 3523,
      "}(\\": 3524,
      "ĠAust": 3525,
      "Not": 3526,
      "do": 3527,
      "ech": 3528,
      "ĠAg": 3529,
      "Ġveh": 3530,
      "Ġund": 3531,
      "ĊĠĠĠĠĠĠĠĠĠĠĠĠĠĠĠĠĠĠĠĠĠĠĠ": 3532,
      "Ġwhite": 3533,
      "Ġstatus": 3534,
      "Ġjudgment": 3535,
      "Ġinfe": 3536,
      "Ġfollows": 3537,
      "Ġavoid": 3538,
      "ellant": 3539,
      "73": 3540,
      "Ġpolitical": 3541,
      "Qu": 3542,
      "ervice": 3543,
      "63": 3544,
      "Ġago": 3545,
      "]{},": 3546,
      "Ġfriend": 3547,
      "Ġconstant": 3548,
      "Ġpain": 3549,
      "Ġstatement": 3550,
      "EL": 3551,
      "Ġful": 3552,
      "ĠPart": 3553,
      "De": 3554,
      "ottom": 3555,
      "78": 3556,
      "Ġtheory": 3557,
      "Ġquestions": 3558,
      "Ġdirectly": 3559,
      "Ġknowledge": 3560,
      "Ġmole": 3561,
      "sm": 3562,
      "Ġdefault": 3563,
      "Ġcontinue": 3564,
      "length": 3565,
      "arr": 3566,
      "Or": 3567,
      "bor": 3568,
      "isions": 3569,
      "erson": 3570,
      "Ð¸": 3571,
      "ĠGe": 3572,
      "Ġsurv": 3573,
      "ners": 3574,
      "Ġbur": 3575,
      "Ġpie": 3576,
      "###": 3577,
      "ĠOb": 3578,
      "71": 3579,
      "elling": 3580,
      "non": 3581,
      "Ġ&&": 3582,
      "Ġstyle": 3583,
      "Ġconstruct": 3584,
      "itary": 3585,
      "hood": 3586,
      "ML": 3587,
      "Ġsem": 3588,
      "uous": 3589,
      "ĠQu": 3590,
      "ORD": 3591,
      "Ġbehavior": 3592,
      "lege": 3593,
      "argin": 3594,
      "Ġfire": 3595,
      "sych": 3596,
      "rote": 3597,
      "ĠâĪĴ": 3598,
      "ancial": 3599,
      "ethyl": 3600,
      "Ġcand": 3601,
      "Ġwanted": 3602,
      "Ed": 3603,
      "Ad": 3604,
      "Ġnature": 3605,
      "era": 3606,
      "Ġclaims": 3607,
      "vere": 3608,
      "ĠÂ±": 3609,
      "print": 3610,
      "annel": 3611,
      "rav": 3612,
      "Ġmach": 3613,
      "\\*": 3614,
      "Ġcry": 3615,
      "Ġmix": 3616,
      "Ġelements": 3617,
      "ocol": 3618,
      "BC": 3619,
      "Ġson": 3620,
      "met": 3621,
      "Ġanim": 3622,
      "amin": 3623,
      "ager": 3624,
      "ĠLicense": 3625,
      "Ġjo": 3626,
      "Ġimpl": 3627,
      "Ġfem": 3628,
      "Ġclean": 3629,
      "Ġmessage": 3630,
      "Ġmother": 3631,
      "uary": 3632,
      "Ġgames": 3633,
      "oon": 3634,
      "ĠJust": 3635,
      "pite": 3636,
      "user": 3637,
      "Ġtraining": 3638,
      "osph": 3639,
      "Ġgreater": 3640,
      "áĥ": 3641,
      "Ġopportun": 3642,
      "isms": 3643,
      "Ġwritten": 3644,
      "ĠDist": 3645,
      "clus": 3646,
      "aches": 3647,
      "Ġwrite": 3648,
      "Ġautom": 3649,
      "anch": 3650,
      "ĠPe": 3651,
      "Ġfun": 3652,
      "Ġonline": 3653,
      "ĠDNA": 3654,
      "Def": 3655,
      "Ġreduced": 3656,
      "Ġsaw": 3657,
      "Ġ?": 3658,
      "ishing": 3659,
      "UN": 3660,
      "lig": 3661,
      "Ġimmedi": 3662,
      "ĠRev": 3663,
      "otic": 3664,
      "Ġforce": 3665,
      "Ġhttp": 3666,
      "icles": 3667,
      "Ġple": 3668,
      "Ġcontain": 3669,
      "Ġgrad": 3670,
      "itation": 3671,
      "orph": 3672,
      "Ġlayer": 3673,
      "ega": 3674,
      "Ġincludes": 3675,
      "Ġlimited": 3676,
      "Ġoffer": 3677,
      "ĠTherefore": 3678,
      "Ġge": 3679,
      "Ġtown": 3680,
      "Ġrelease": 3681,
      "Ġmatch": 3682,
      "Ġnegative": 3683,
      "ĠString": 3684,
      "Ġbehind": 3685,
      "Ġthemselves": 3686,
      "ener": 3687,
      "Ġparticularly": 3688,
      "aries": 3689,
      "kn": 3690,
      "oles": 3691,
      "Ġcompan": 3692,
      "urance": 3693,
      "Ġrestr": 3694,
      "Ġoption": 3695,
      "psilon": 3696,
      "Ġaccom": 3697,
      "Ġshare": 3698,
      "Ġapplied": 3699,
      "Â°": 3700,
      "plate": 3701,
      "reng": 3702,
      "!!": 3703,
      "Ġtiss": 3704,
      "Ġtitle": 3705,
      ")=": 3706,
      "Ġability": 3707,
      "Ġdeveloped": 3708,
      "inst": 3709,
      "Suppose": 3710,
      "ada": 3711,
      "rial": 3712,
      "Ġreference": 3713,
      "apan": 3714,
      "Ġnational": 3715,
      "imate": 3716,
      "ially": 3717,
      "Ġnumbers": 3718,
      "Ġmis": 3719,
      "from": 3720,
      "idge": 3721,
      "roph": 3722,
      ")$.": 3723,
      "Ġobtain": 3724,
      "Par": 3725,
      "Ġpresident": 3726,
      "gor": 3727,
      "ĠSystem": 3728,
      "ĠSouth": 3729,
      "Ġgas": 3730,
      "Ġcoming": 3731,
      "void": 3732,
      "Ġsecurity": 3733,
      "Ġplayers": 3734,
      "SD": 3735,
      "]^": 3736,
      "ĠFurther": 3737,
      "ĠDem": 3738,
      "Ġpreviously": 3739,
      "ĠWhile": 3740,
      "Ġwindow": 3741,
      "Ġhyp": 3742,
      "MA": 3743,
      "Ġvideo": 3744,
      "bre": 3745,
      "\\])": 3746,
      "ees": 3747,
      "Ġbrain": 3748,
      "acement": 3749,
      "58": 3750,
      "Ġactive": 3751,
      "leep": 3752,
      "fo": 3753,
      "iber": 3754,
      "Ġanyone": 3755,
      "ĠDav": 3756,
      "aur": 3757,
      "Ġoffice": 3758,
      "Ġword": 3759,
      "Ġusually": 3760,
      "79": 3761,
      "ĠIsrael": 3762,
      "rief": 3763,
      "supp": 3764,
      "Ġfavor": 3765,
      "gn": 3766,
      "\".": 3767,
      "ĊĊĊ": 3768,
      "Ġcorresponding": 3769,
      "ĠPer": 3770,
      "Ġappropri": 3771,
      "Ġmi": 3772,
      "atives": 3773,
      "ĠIntern": 3774,
      "Ġleave": 3775,
      "Ġfat": 3776,
      "ament": 3777,
      "zz": 3778,
      "ĠPresident": 3779,
      "cell": 3780,
      "Ġprec": 3781,
      "CO": 3782,
      "Ġ(\\[": 3783,
      "Ġvict": 3784,
      "hest": 3785,
      "Ġprep": 3786,
      "illing": 3787,
      "Ġpet": 3788,
      "struct": 3789,
      "Ġexpress": 3790,
      "erve": 3791,
      "Ġ2011": 3792,
      "Ġtransfer": 3793,
      "ĠSince": 3794,
      "Ġnote": 3795,
      "Ġarticle": 3796,
      "Ġvot": 3797,
      "Ġlate": 3798,
      "mpt": 3799,
      "().": 3800,
      "Ġglobal": 3801,
      "Ġcommand": 3802,
      "ferences": 3803,
      "olds": 3804,
      "cdot": 3805,
      "Ġforward": 3806,
      "Ġtakes": 3807,
      "Ġdynam": 3808,
      "irit": 3809,
      "PA": 3810,
      "arning": 3811,
      "Ġheav": 3812,
      "ĠPa": 3813,
      "rupt": 3814,
      "ogle": 3815,
      "ĠOur": 3816,
      "Ġstress": 3817,
      "ĠId": 3818,
      "Ġcampaign": 3819,
      "Ġdifferences": 3820,
      ")-": 3821,
      "ging": 3822,
      "Ġrev": 3823,
      "Ġetc": 3824,
      "ĠCounty": 3825,
      "joy": 3826,
      "61": 3827,
      "public": 3828,
      "Ġbir": 3829,
      "ï¼": 3830,
      "Ġantib": 3831,
      "CA": 3832,
      "bi": 3833,
      "Ġslow": 3834,
      "Ġsoftware": 3835,
      "Ġ29": 3836,
      "encies": 3837,
      "ĠSim": 3838,
      "base": 3839,
      "Ġsaying": 3840,
      "Ġunit": 3841,
      "62": 3842,
      "pat": 3843,
      "style": 3844,
      "js": 3845,
      "ĠPhys": 3846,
      "Ġfollowed": 3847,
      "TH": 3848,
      "vey": 3849,
      "Ġindependent": 3850,
      "Ġdouble": 3851,
      "ĠSome": 3852,
      "Ġ;": 3853,
      "Ġ[*": 3854,
      "pen": 3855,
      "Ġliving": 3856,
      "Ġmention": 3857,
      "}}$": 3858,
      "lation": 3859,
      "Ġ60": 3860,
      "Ġinstance": 3861,
      "orks": 3862,
      "rought": 3863,
      "ĠSm": 3864,
      "Ġrecently": 3865,
      "Ġtried": 3866,
      "Add": 3867,
      "umb": 3868,
      "Ġaltern": 3869,
      "reme": 3870,
      "Ġwhose": 3871,
      "Ġcover": 3872,
      "pace": 3873,
      "CE": 3874,
      "ĠÃĹÂ": 3875,
      "Ġbroad": 3876,
      "iven": 3877,
      "Ġdriv": 3878,
      "Ġopin": 3879,
      "Ġcenter": 3880,
      "Ġalthough": 3881,
      "Ġtreated": 3882,
      "ĠRuss": 3883,
      "oe": 3884,
      "Ġaud": 3885,
      "Ġsaf": 3886,
      "ĠComp": 3887,
      "Ġwebs": 3888,
      "och": 3889,
      "ĠHis": 3890,
      "Des": 3891,
      "levant": 3892,
      "quest": 3893,
      "EX": 3894,
      "eline": 3895,
      "gorith": 3896,
      "ocation": 3897,
      "Ġproposed": 3898,
      "abase": 3899,
      "ĠDes": 3900,
      "['": 3901,
      "ĠMarch": 3902,
      "ils": 3903,
      "Ġregular": 3904,
      "Ġgenerally": 3905,
      "Ġanalyz": 3906,
      "semb": 3907,
      "irmed": 3908,
      "Exception": 3909,
      "illi": 3910,
      "};": 3911,
      "wide": 3912,
      "change": 3913,
      "Ġanswer": 3914,
      "max": 3915,
      "Ġpurch": 3916,
      "Ġwall": 3917,
      "ĠNorth": 3918,
      "ĠHere": 3919,
      "\\].": 3920,
      "itness": 3921,
      "ä¸": 3922,
      "Ġpo": 3923,
      "Ġrule": 3924,
      "Ġsort": 3925,
      "Ġresid": 3926,
      "group": 3927,
      "ĊĊĠĠĠĠĠ": 3928,
      "ĠApr": 3929,
      "Ġlost": 3930,
      "ĠIS": 3931,
      "Ġbox": 3932,
      "map": 3933,
      "lin": 3934,
      "Ġmice": 3935,
      "pret": 3936,
      "Ġcountries": 3937,
      "fered": 3938,
      "ĠEd": 3939,
      "Ġprotect": 3940,
      "ran": 3941,
      "Ġgirl": 3942,
      "Ġessential": 3943,
      "\"><": 3944,
      "Path": 3945,
      "Ġ:=": 3946,
      "Ġbecame": 3947,
      "Ġ2014": 3948,
      "Ġhimself": 3949,
      "Ġwatch": 3950,
      "ĠOct": 3951,
      "Ġexcept": 3952,
      "Ġpref": 3953,
      "ersion": 3954,
      "Ġinvention": 3955,
      "cast": 3956,
      "hern": 3957,
      "ĠOR": 3958,
      "Ġrespond": 3959,
      "Ġways": 3960,
      "čĊĠĠĠ": 3961,
      "ĠTH": 3962,
      "Ġcook": 3963,
      "Ġdeb": 3964,
      "Ġcharge": 3965,
      "Ġir": 3966,
      "...\"": 3967,
      "Ġprice": 3968,
      "ĠBar": 3969,
      "Ġaccur": 3970,
      "ĠAp": 3971,
      "anger": 3972,
      "ashing": 3973,
      "*~": 3974,
      "Ġ2015": 3975,
      "Ġ2016": 3976,
      "ports": 3977,
      "ĠNow": 3978,
      "ĠGl": 3979,
      "vention": 3980,
      "Ġball": 3981,
      "py": 3982,
      "ĠAP": 3983,
      "rangle": 3984,
      "ades": 3985,
      "Ġspeed": 3986,
      "Ġorg": 3987,
      "Ġcomment": 3988,
      "Ġsituation": 3989,
      "Ġrates": 3990,
      "Ġagreement": 3991,
      "Ġstim": 3992,
      "Ġgrant": 3993,
      "ufact": 3994,
      "ĠHouse": 3995,
      "ĠJud": 3996,
      "Ġque": 3997,
      "Ġfailed": 3998,
      "Ġ);": 3999,
      "operator": 4000,
      "^[@": 4001,
      "Ġvers": 4002,
      "Ġfiles": 4003,
      "sk": 4004,
      "ĠReg": 4005,
      "link": 4006,
      "itional": 4007,
      "Ġbackground": 4008,
      "ĠWorld": 4009,
      "Ġconnection": 4010,
      "Ġenh": 4011,
      "GF": 4012,
      "Ġroad": 4013,
      "itions": 4014,
      "Ġrot": 4015,
      "Ġvisit": 4016,
      "\"/>": 4017,
      "Ġdeep": 4018,
      "ĠSch": 4019,
      "Ġdraw": 4020,
      "Ġpractice": 4021,
      "State": 4022,
      "Ġargument": 4023,
      "Ġunc": 4024,
      "Ġstreng": 4025,
      "Ġpretty": 4026,
      "Ġisol": 4027,
      "mega": 4028,
      "epsilon": 4029,
      "Ġdetails": 4030,
      "Ġ2012": 4031,
      "Ġserious": 4032,
      "Ġrepe": 4033,
      "Ġfindings": 4034,
      "Ġsqu": 4035,
      "Ġrele": 4036,
      "Ġmeasured": 4037,
      "Ġintern": 4038,
      "ming": 4039,
      "Of": 4040,
      "ĠVal": 4041,
      "ocks": 4042,
      "oding": 4043,
      "ĠJapan": 4044,
      "ĠDis": 4045,
      "She": 4046,
      "ĠFirst": 4047,
      "Ġhydro": 4048,
      "Ġlay": 4049,
      "Ġprot": 4050,
      "sing": 4051,
      "ĠGo": 4052,
      "New": 4053,
      "Ġfast": 4054,
      "Ġgave": 4055,
      "Ġdirection": 4056,
      "Ġdensity": 4057,
      "atform": 4058,
      "ĠST": 4059,
      "Ġ[**": 4060,
      "Ġdegree": 4061,
      "igen": 4062,
      "Ġoperation": 4063,
      "room": 4064,
      "Ġdesigned": 4065,
      "Ġ2013": 4066,
      "Ġgives": 4067,
      "Ġfeed": 4068,
      "._": 4069,
      "Le": 4070,
      "Ġcommit": 4071,
      "Ġcandid": 4072,
      "bon": 4073,
      "oice": 4074,
      "Ġindividuals": 4075,
      "Ġpublished": 4076,
      "uge": 4077,
      "ĠCO": 4078,
      "SP": 4079,
      "Ã¡": 4080,
      "Ġsufficient": 4081,
      "One": 4082,
      "Ġsoon": 4083,
      "Ġcomponent": 4084,
      "lor": 4085,
      "Ġfriends": 4086,
      "osure": 4087,
      "ĠChina": 4088,
      "Ġwoman": 4089,
      "čĊĠ": 4090,
      "inate": 4091,
      "Ġcomponents": 4092,
      "((": 4093,
      "oat": 4094,
      "Ġpict": 4095,
      "Ġimages": 4096,
      "^{(": 4097,
      "ĠJune": 4098,
      "Test": 4099,
      "Ġperfect": 4100,
      "Ġrelative": 4101,
      "Ġselected": 4102,
      "Ġalone": 4103,
      "ris": 4104,
      "Error": 4105,
      "Ġ->": 4106,
      "CP": 4107,
      "Ġauth": 4108,
      "Ġhor": 4109,
      "Ġ/*": 4110,
      "orem": 4111,
      "Ġhighly": 4112,
      "Ġpurpose": 4113,
      "ĠAmerica": 4114,
      "Ġeveryone": 4115,
      "Ġtrack": 4116,
      "Ġprofession": 4117,
      "Gamma": 4118,
      "Ġallowed": 4119,
      "Ġtherap": 4120,
      "ibrary": 4121,
      "Item": 4122,
      "ulate": 4123,
      "izes": 4124,
      "Ġidentify": 4125,
      "vare": 4126,
      "BS": 4127,
      "ham": 4128,
      "script": 4129,
      "Ġscale": 4130,
      ")$,": 4131,
      "Ġfixed": 4132,
      "ĠPM": 4133,
      "Ġfinancial": 4134,
      "rightarrow": 4135,
      "ĊĠĠĠĠĠĠĠĠĠĠĠĠĠ": 4136,
      "Ġspeak": 4137,
      "Ġbank": 4138,
      "Ġinform": 4139,
      "Ġfocus": 4140,
      "lick": 4141,
      "Ġmode": 4142,
      "ĠFeb": 4143,
      "}=": 4144,
      "ĠRepublic": 4145,
      "that": 4146,
      "Ġlegal": 4147,
      "IF": 4148,
      "Ġcurrently": 4149,
      "Ġnotice": 4150,
      "Ġbal": 4151,
      "init": 4152,
      "ouch": 4153,
      "Ġ2010": 4154,
      "Ġcontains": 4155,
      "pan": 4156,
      "':": 4157,
      "Fr": 4158,
      "oes": 4159,
      "reen": 4160,
      "gu": 4161,
      "Ġsubstant": 4162,
      "Ġlarger": 4163,
      "Time": 4164,
      "coming": 4165,
      "itter": 4166,
      "den": 4167,
      "tilde": 4168,
      "Ġfine": 4169,
      "Ġpoor": 4170,
      "ights": 4171,
      "ĠAlthough": 4172,
      "Sc": 4173,
      "ĠGerm": 4174,
      "ĠII": 4175,
      "Ġvit": 4176,
      "ography": 4177,
      "index": 4178,
      "ĠSept": 4179,
      "Ġcaused": 4180,
      "mar": 4181,
      "ĠSu": 4182,
      ".[": 4183,
      "men": 4184,
      "Ġlat": 4185,
      "ĠDepartment": 4186,
      "Form": 4187,
      "lish": 4188,
      "oud": 4189,
      "Ġpsych": 4190,
      "Ġsynt": 4191,
      "Ġrequires": 4192,
      "Ġcompanies": 4193,
      "Ġ($": 4194,
      "Ġgraph": 4195,
      "Ġoptions": 4196,
      "urb": 4197,
      "ken": 4198,
      "Ġround": 4199,
      "Ġreach": 4200,
      "Ġphen": 4201,
      "known": 4202,
      "Ġfrequency": 4203,
      "varepsilon": 4204,
      "ĠJanuary": 4205,
      "haps": 4206,
      "Ġuseful": 4207,
      "ĠAug": 4208,
      "fra": 4209,
      "Now": 4210,
      "Ġstage": 4211,
      "omen": 4212,
      "tee": 4213,
      "section": 4214,
      "ournal": 4215,
      "Ġhearing": 4216,
      "Ġenjoy": 4217,
      "Ġcentral": 4218,
      "ĠSen": 4219,
      "ivil": 4220,
      "Ġmanagement": 4221,
      "Ġspecies": 4222,
      "Ġleading": 4223,
      "ĠLa": 4224,
      "Cal": 4225,
      "Ġdevices": 4226,
      "lib": 4227,
      "Ċĉĉĉĉĉĉ": 4228,
      "Ġfailure": 4229,
      "Ġfederal": 4230,
      "ĠĠĠĠĠĠĠĠĠĠĠĠĠĠĠĠĠĠĠ": 4231,
      "Ġten": 4232,
      "Ġunique": 4233,
      "Ġproceed": 4234,
      "Ġchoice": 4235,
      "Ġdivided": 4236,
      "ze": 4237,
      "Ġextract": 4238,
      "Cs": 4239,
      "nes": 4240,
      "Ð½": 4241,
      "uster": 4242,
      "Ġparts": 4243,
      "omy": 4244,
      "iency": 4245,
      "Ġattention": 4246,
      "Class": 4247,
      "ius": 4248,
      "Ġled": 4249,
      "java": 4250,
      "Ġthreat": 4251,
      "Ġappeal": 4252,
      "Ġwasn": 4253,
      "Ġrecept": 4254,
      "inated": 4255,
      "Ġcircum": 4256,
      "acing": 4257,
      "002": 4258,
      "Ġderivative": 4259,
      "Ġbuy": 4260,
      "(),": 4261,
      "Ġarr": 4262,
      "pir": 4263,
      "Ġlabel": 4264,
      "Ġbegan": 4265,
      "ÑĢ": 4266,
      "obile": 4267,
      "Ġfre": 4268,
      "Ġengine": 4269,
      "Ġsn": 4270,
      "Ġserver": 4271,
      "Ġappropriate": 4272,
      "ffer": 4273,
      "Ġproteins": 4274,
      "operatorname": 4275,
      "ĠNe": 4276,
      "Bl": 4277,
      "EM": 4278,
      "md": 4279,
      "iday": 4280,
      "Ġgoal": 4281,
      "rew": 4282,
      "ĠHealth": 4283,
      "Ġ32": 4284,
      "ĠWest": 4285,
      "Ġhyper": 4286,
      ".'": 4287,
      "inity": 4288,
      "Ġ2017": 4289,
      "Ġfather": 4290,
      "Ġeducation": 4291,
      "Ġacqu": 4292,
      "Ġtim": 4293,
      "Ġnames": 4294,
      "hold": 4295,
      "iated": 4296,
      "overy": 4297,
      "Omega": 4298,
      "ĠAustral": 4299,
      "Ġgenerated": 4300,
      "cil": 4301,
      "estern": 4302,
      "Ġtravel": 4303,
      "Ġ__": 4304,
      "ĠApril": 4305,
      "Ġextra": 4306,
      "ait": 4307,
      "Ġannoun": 4308,
      "Ġratio": 4309,
      "Ġmid": 4310,
      "Man": 4311,
      "NS": 4312,
      "Ġheat": 4313,
      "Supp": 4314,
      "ovember": 4315,
      "yond": 4316,
      "Ġsche": 4317,
      "ĠĠĠĠĠĠĠĠĠĠĠĠĠĠĠĠĠ": 4318,
      "Ġstar": 4319,
      "Ġeasily": 4320,
      "Ġexerc": 4321,
      "ĠJuly": 4322,
      "Sec": 4323,
      "Ġhit": 4324,
      "osing": 4325,
      "font": 4326,
      "ociety": 4327,
      "Ġallows": 4328,
      "cos": 4329,
      "Ġlocation": 4330,
      "Ġvector": 4331,
      "Ġtrust": 4332,
      "Ġdead": 4333,
      "Ġmulti": 4334,
      "ifically": 4335,
      "Ġworth": 4336,
      "From": 4337,
      "ails": 4338,
      "psi": 4339,
      "Ġusers": 4340,
      "Ġactivities": 4341,
      "Ġones": 4342,
      "TP": 4343,
      "plit": 4344,
      "Over": 4345,
      "oring": 4346,
      "Ġsupported": 4347,
      "Ġmeaning": 4348,
      "Ġ----------------": 4349,
      "Ġ(\\": 4350,
      "Ġaim": 4351,
      "active": 4352,
      "acity": 4353,
      "Ġstaff": 4354,
      "ĠTrans": 4355,
      "Ġbuilt": 4356,
      ".*": 4357,
      "Ġbrought": 4358,
      "Ġparameter": 4359,
      "True": 4360,
      "Ġpen": 4361,
      "orage": 4362,
      "='": 4363,
      "Ġord": 4364,
      "ae": 4365,
      "Ġmys": 4366,
      "Ġcompletely": 4367,
      "Ġearlier": 4368,
      "oses": 4369,
      "ĠCir": 4370,
      "ĠSer": 4371,
      "abled": 4372,
      "Ġwidth": 4373,
      "Ġprop": 4374,
      "ĠGet": 4375,
      "fil": 4376,
      "Ġsites": 4377,
      "was": 4378,
      "Ġlooks": 4379,
      "}.": 4380,
      "Ġclearly": 4381,
      "Ġindustry": 4382,
      "ously": 4383,
      "Ġplant": 4384,
      "Ġoverall": 4385,
      "Ġ^": 4386,
      "Ġbed": 4387,
      "Ġapply": 4388,
      "Ġcritical": 4389,
      "ĠGeneral": 4390,
      "================================": 4391,
      "unk": 4392,
      "Ġmanufact": 4393,
      "ĠĠĠĠĠĠĠĠĠĠĠĠĠĠĠĠĠĠĠĠĠĠĠĠĠĠĠĠĠĠĠĠĠĠĠĠĠĠĠĠĠĠĠĠĠĠĠĠĠĠĠĠĠĠĠĠĠĠĠĠĠĠĠĠĠĠĠĠĠĠĠĠĠĠĠĠĠĠĠĠĠĠĠĠĠĠĠĠĠĠĠĠĠĠĠĠĠĠĠĠĠĠĠĠĠĠĠĠĠĠĠĠĠĠĠĠĠĠĠĠĠĠĠĠĠĠĠĠĠĠĠĠĠĠĠĠĠĠĠĠĠĠĠĠĠĠĠĠĠĠĠĠĠĠĠĠĠĠĠĠĠĠĠĠĠĠĠĠĠĠĠĠĠĠĠĠĠĠĠĠĠĠĠĠĠĠĠĠĠĠĠĠĠĠĠĠĠĠĠĠĠĠĠĠĠĠĠĠĠĠĠĠĠĠĠĠĠĠĠĠĠĠĠĠĠĠĠĠĠĠĠĠĠĠĠĠĠĠĠĠĠĠĠĠĠĠĠĠĠĠĠĠĠĠĠĠ": 4394,
      "Ġfinding": 4395,
      "Ġstated": 4396,
      "varphi": 4397,
      "Ġpull": 4398,
      "ĠRed": 4399,
      "cale": 4400,
      "Dis": 4401,
      "SA": 4402,
      "gs": 4403,
      "Ab": 4404,
      "Ġsuit": 4405,
      "Ġhighest": 4406,
      "Ġprime": 4407,
      "Ġbeaut": 4408,
      "HT": 4409,
      "conne": 4410,
      "cluded": 4411,
      "Ġrelevant": 4412,
      "Ġcapt": 4413,
      "spec": 4414,
      "exp": 4415,
      "Ġlocated": 4416,
      "Exp": 4417,
      "[\\": 4418,
      "Ġnumer": 4419,
      "ĠMich": 4420,
      "Ġchalleng": 4421,
      "Ġexpressed": 4422,
      "Ġmatrix": 4423,
      "Ġemerg": 4424,
      "icit": 4425,
      "untu": 4426,
      "Ġwonder": 4427,
      "Ġauthors": 4428,
      "IE": 4429,
      "Ġknew": 4430,
      "Context": 4431,
      "Ġneigh": 4432,
      "ULL": 4433,
      "Ñģ": 4434,
      "Ġdistance": 4435,
      "Ġmount": 4436,
      "Sim": 4437,
      "Ġbeyond": 4438,
      "They": 4439,
      "color": 4440,
      "Ġstore": 4441,
      "Ã³": 4442,
      "Ġplease": 4443,
      "Ġdu": 4444,
      "Ġcontaining": 4445,
      "Ġtumor": 4446,
      "Ġweb": 4447,
      "Ġsound": 4448,
      "ĠStud": 4449,
      "config": 4450,
      "Ġtechnology": 4451,
      "dim": 4452,
      "Ġestablished": 4453,
      "ancy": 4454,
      "Ð¾Ð": 4455,
      "ride": 4456,
      "Ġfight": 4457,
      "Ġreasons": 4458,
      "Ġlearning": 4459,
      "ĠDemocr": 4460,
      "$$\\": 4461,
      "vec": 4462,
      ")).": 4463,
      "ĠHar": 4464,
      "hesis": 4465,
      "Ġlinear": 4466,
      "Ġreduce": 4467,
      "ĠAND": 4468,
      "Ġcomputer": 4469,
      "ellow": 4470,
      "Ġvariable": 4471,
      "hand": 4472,
      "Ġeyes": 4473,
      "ube": 4474,
      "Ġsold": 4475,
      "call": 4476,
      "atur": 4477,
      "Ġgoes": 4478,
      "Ġparties": 4479,
      "Ġhospital": 4480,
      "Ġcyt": 4481,
      "Ġfiled": 4482,
      "Ġyield": 4483,
      "Ġvehicle": 4484,
      "alt": 4485,
      "iring": 4486,
      "Ġ31": 4487,
      "rate": 4488,
      "ruary": 4489,
      "ĠMod": 4490,
      "ĠWar": 4491,
      "Ġboard": 4492,
      "rad": 4493,
      "Ġdaily": 4494,
      "Ġ2008": 4495,
      "Ġarch": 4496,
      "ĠFrom": 4497,
      "Ġcosts": 4498,
      "Ġchanged": 4499,
      "ãĢĤ": 4500,
      "Ġheard": 4501,
      "Ġjury": 4502,
      "PR": 4503,
      "Ġitems": 4504,
      "After": 4505,
      "({\\": 4506,
      "mark": 4507,
      "istry": 4508,
      "FL": 4509,
      "orney": 4510,
      "Ġtransport": 4511,
      "gest": 4512,
      "Ġremains": 4513,
      "Ġactual": 4514,
      "Ġseek": 4515,
      "ĠDistrict": 4516,
      "raz": 4517,
      "Ġreceive": 4518,
      "Ġuses": 4519,
      "vis": 4520,
      "ifier": 4521,
      "Ġwebsite": 4522,
      "cap": 4523,
      "cules": 4524,
      "sembly": 4525,
      "}_{\\": 4526,
      "Ġhon": 4527,
      "cember": 4528,
      "Ġcontribut": 4529,
      "fort": 4530,
      "');": 4531,
      "Ġsomet": 4532,
      "';": 4533,
      "Ġwriting": 4534,
      "Inst": 4535,
      "Ġequal": 4536,
      "Ġfair": 4537,
      "Ġnode": 4538,
      "Ġinterpret": 4539,
      "Ġexperiments": 4540,
      "']": 4541,
      "^+": 4542,
      "Ġcarry": 4543,
      "undred": 4544,
      "Ġproof": 4545,
      "Ġworked": 4546,
      "){#": 4547,
      "Ġlov": 4548,
      "Ġconcept": 4549,
      "Ġsafety": 4550,
      "Ġinjury": 4551,
      "/(-": 4552,
      "Ġremember": 4553,
      "Ġsympt": 4554,
      "Ġshowing": 4555,
      "Size": 4556,
      "fn": 4557,
      "LA": 4558,
      "iate": 4559,
      "aling": 4560,
      "Ġreading": 4561,
      "\":\"": 4562,
      "Ġdiscl": 4563,
      "Ġskin": 4564,
      "Ġzero": 4565,
      "Ġproduced": 4566,
      "ibly": 4567,
      "DA": 4568,
      "ĠCons": 4569,
      "force": 4570,
      "itory": 4571,
      "band": 4572,
      "Ġliter": 4573,
      "Ġunderstanding": 4574,
      "ATE": 4575,
      "bin": 4576,
      "Ġalgorith": 4577,
      "Ġ35": 4578,
      "``": 4579,
      "Ġwrote": 4580,
      "Ġmorning": 4581,
      "Ġcouple": 4582,
      "Be": 4583,
      "]\\],": 4584,
      "Ġfeature": 4585,
      "Ġhands": 4586,
      "OW": 4587,
      "acher": 4588,
      "cin": 4589,
      "related": 4590,
      "la": 4591,
      "Ġcam": 4592,
      "odies": 4593,
      "Ġleaders": 4594,
      "uted": 4595,
      "Ġfully": 4596,
      "Ġadvant": 4597,
      "Ġreports": 4598,
      "Ġeight": 4599,
      "Ġproduce": 4600,
      "Ġdog": 4601,
      "*-": 4602,
      "Config": 4603,
      "Ġfa": 4604,
      "eah": 4605,
      "grad": 4606,
      "Ġregarding": 4607,
      "ql": 4608,
      "erved": 4609,
      "Ġvs": 4610,
      "ĠSw": 4611,
      "003": 4612,
      "Ġthous": 4613,
      "ĠBrit": 4614,
      "grams": 4615,
      "Ġthroughout": 4616,
      "ĠSeptember": 4617,
      "Ġliqu": 4618,
      "attle": 4619,
      "UL": 4620,
      "Ġaw": 4621,
      "rant": 4622,
      "ĠCong": 4623,
      "ctors": 4624,
      "128": 4625,
      "overn": 4626,
      ")^": 4627,
      "Ġsmaller": 4628,
      "rier": 4629,
      "Ġqual": 4630,
      "Ġappears": 4631,
      "Ġpopular": 4632,
      ">>": 4633,
      "Ġcounsel": 4634,
      "Ġculture": 4635,
      "Ġseparate": 4636,
      "Ġtowards": 4637,
      "âĢ¢": 4638,
      "Ġeconomic": 4639,
      "Ġvariables": 4640,
      "Ġmilitary": 4641,
      "Ġdoor": 4642,
      "Ġtests": 4643,
      "ĠSchool": 4644,
      "Ġ<<": 4645,
      "Ġtask": 4646,
      "enses": 4647,
      "langle": 4648,
      "Ġroot": 4649,
      "Ġexists": 4650,
      "icted": 4651,
      "Ġdefine": 4652,
      "Ġresulting": 4653,
      "ios": 4654,
      "enty": 4655,
      "Ġspin": 4656,
      "Ġutil": 4657,
      "ĠSy": 4658,
      "*.": 4659,
      "Ġopinion": 4660,
      "heck": 4661,
      "Ġlives": 4662,
      "Ġscore": 4663,
      "Ġconcentration": 4664,
      "iforn": 4665,
      "Info": 4666,
      "Ġinteresting": 4667,
      "asis": 4668,
      "ĠSan": 4669,
      "Ġstd": 4670,
      "Ġexactly": 4671,
      "čĊĉ": 4672,
      "ĠNovember": 4673,
      "Ġ\\,": 4674,
      "\\<": 4675,
      "Ġindicated": 4676,
      "Ġvirt": 4677,
      "Ġdecided": 4678,
      "Ġpaid": 4679,
      "ensions": 4680,
      "stream": 4681,
      "ĠBecause": 4682,
      "Ġconnected": 4683,
      "Ġprogress": 4684,
      "Ġclosed": 4685,
      "Ġreasonable": 4686,
      "ĠOctober": 4687,
      "Ġfelt": 4688,
      "aste": 4689,
      "Ġdro": 4690,
      "Ġsecret": 4691,
      "Ġsafe": 4692,
      "Map": 4693,
      "ooth": 4694,
      "Ġstation": 4695,
      "Ġcontrast": 4696,
      "Ġyes": 4697,
      "Ġgets": 4698,
      "Ġnor": 4699,
      "Ġtour": 4700,
      "Ġax": 4701,
      "Ġrules": 4702,
      "Ġborder": 4703,
      "rum": 4704,
      "Ġitem": 4705,
      "Ġrelig": 4706,
      "Ġturned": 4707,
      "Ġadjust": 4708,
      "Ġsurpr": 4709,
      "Ġmer": 4710,
      "ĠAng": 4711,
      "ĠPublic": 4712,
      "enge": 4713,
      "Ġ2009": 4714,
      "omic": 4715,
      "Ġparents": 4716,
      "ĠPark": 4717,
      "ste": 4718,
      "Ġdomain": 4719,
      "Ġ///": 4720,
      "Ġeffic": 4721,
      "Ġ\\<": 4722,
      "Ġbasic": 4723,
      "Ġbirth": 4724,
      "Ġconstruction": 4725,
      "input": 4726,
      "Ġgreen": 4727,
      "iences": 4728,
      "thon": 4729,
      "Ġsetting": 4730,
      "Ġ2018": 4731,
      "ls": 4732,
      "eria": 4733,
      "mail": 4734,
      "());": 4735,
      "\\'": 4736,
      ")/(-": 4737,
      "material": 4738,
      "Ġinterview": 4739,
      "geq": 4740,
      "Ġconsequ": 4741,
      "Ġbenefits": 4742,
      "Ġinternal": 4743,
      "Ġinfection": 4744,
      "Ġles": 4745,
      "ashington": 4746,
      "ĠData": 4747,
      "can": 4748,
      "Ġelectro": 4749,
      "Ġyourself": 4750,
      "inct": 4751,
      "CS": 4752,
      "ĠLORD": 4753,
      "ĠMark": 4754,
      "Ġmaterials": 4755,
      "Ġhear": 4756,
      "ett": 4757,
      "arter": 4758,
      "Ġrap": 4759,
      "Ġsyn": 4760,
      "Ġotherwise": 4761,
      "pling": 4762,
      "ĠFebruary": 4763,
      "Ġabsol": 4764,
      "works": 4765,
      "Ġsubsequ": 4766,
      "Ġhar": 4767,
      "Ġoperator": 4768,
      "Ġagree": 4769,
      "Ġcool": 4770,
      "ĠArt": 4771,
      "Ġreduction": 4772,
      "Ġfields": 4773,
      "Ġbinding": 4774,
      "Ġnoted": 4775,
      "Ġaspect": 4776,
      "ĠOther": 4777,
      "Ġsolid": 4778,
      "RA": 4779,
      "Ġmess": 4780,
      "Ġarrest": 4781,
      "which": 4782,
      "Ġ/**": 4783,
      "Ġensure": 4784,
      "Ġphosph": 4785,
      ":\"": 4786,
      "ifornia": 4787,
      "Ġheight": 4788,
      "System": 4789,
      "Ġslight": 4790,
      "Property": 4791,
      "Ġinn": 4792,
      "ĊĊĠĠĠĠĠĠĠĠĠĠĠ": 4793,
      "weet": 4794,
      "Ġobvious": 4795,
      "Ġsometimes": 4796,
      "Ġprocesses": 4797,
      "Ġstarting": 4798,
      "ĠHigh": 4799,
      "âĢĥ": 4800,
      "Ġwild": 4801,
      "icip": 4802,
      "Ġhous": 4803,
      "iful": 4804,
      "oly": 4805,
      "Ġreflect": 4806,
      "imony": 4807,
      "Ġdrive": 4808,
      "Ġhundred": 4809,
      "Ġmyself": 4810,
      "Ġaware": 4811,
      "adem": 4812,
      "Ġcolumn": 4813,
      "db": 4814,
      "ĠKing": 4815,
      "ĠAugust": 4816,
      "reek": 4817,
      "under": 4818,
      "00000000": 4819,
      "arest": 4820,
      "ĠDecember": 4821,
      "irt": 4822,
      "aker": 4823,
      "Ġdie": 4824,
      "Ġinternational": 4825,
      "Ġandroid": 4826,
      "Ġportion": 4827,
      "utive": 4828,
      "ĠAccording": 4829,
      "urt": 4830,
      "chi": 4831,
      "Hand": 4832,
      "Ġtransform": 4833,
      "Event": 4834,
      "======": 4835,
      "ida": 4836,
      "anged": 4837,
      "Ġstru": 4838,
      "Ġtesting": 4839,
      "Ġplayed": 4840,
      "Ġcombination": 4841,
      "Ġcounter": 4842,
      "ĠAfr": 4843,
      "ĠSub": 4844,
      "Ġeth": 4845,
      "unn": 4846,
      "pective": 4847,
      "Ġsets": 4848,
      "Ġparticipants": 4849,
      "Ġ80": 4850,
      "Ġtoward": 4851,
      "Ġinteraction": 4852,
      "flow": 4853,
      "Ġregions": 4854,
      "Ġreleased": 4855,
      "Ġstra": 4856,
      "ESS": 4857,
      "Ġimmediately": 4858,
      "TC": 4859,
      "asm": 4860,
      "ille": 4861,
      "ĠOf": 4862,
      "Ġsleep": 4863,
      "Ġimm": 4864,
      "DS": 4865,
      "Ġfigure": 4866,
      "car": 4867,
      "}^{\\": 4868,
      "ĠDavid": 4869,
      "500": 4870,
      "image": 4871,
      "osite": 4872,
      "Ġcollection": 4873,
      "ĠSection": 4874,
      "ĠCommission": 4875,
      "######": 4876,
      "Ġrevealed": 4877,
      "ruit": 4878,
      "Ġmajority": 4879,
      "start": 4880,
      "Ġstrength": 4881,
      "athe": 4882,
      "Ġactions": 4883,
      "Ġanimals": 4884,
      "Ġgiving": 4885,
      "static": 4886,
      "umer": 4887,
      "oto": 4888,
      "Ġphone": 4889,
      "Ġvolume": 4890,
      "TS": 4891,
      "Ġemb": 4892,
      "apping": 4893,
      "Ġplayer": 4894,
      "Ġwife": 4895,
      "Ġtherapy": 4896,
      "pc": 4897,
      "Ġdark": 4898,
      "true": 4899,
      "Ġconnect": 4900,
      "Ġmetab": 4901,
      "Ġlooked": 4902,
      "\\,": 4903,
      "Ġfunctional": 4904,
      "ÃŃ": 4905,
      "ares": 4906,
      "iance": 4907,
      "opl": 4908,
      "Ġfit": 4909,
      "ĠCoun": 4910,
      "Ġsec": 4911,
      "Ġremove": 4912,
      "Ġmeeting": 4913,
      "Ġcit": 4914,
      "ayout": 4915,
      "Ġmaximum": 4916,
      "long": 4917,
      "Ġdemand": 4918,
      "Out": 4919,
      "Ġindicate": 4920,
      "Ġmedium": 4921,
      "Ġcollect": 4922,
      "Ġinsurance": 4923,
      "Ġcore": 4924,
      "}}_": 4925,
      "Ġapplications": 4926,
      "Ġ]": 4927,
      "asion": 4928,
      "Ġbecomes": 4929,
      "ico": 4930,
      ")**": 4931,
      "VER": 4932,
      "Ġpackage": 4933,
      "block": 4934,
      "Ġdamage": 4935,
      "oken": 4936,
      "Ġobjects": 4937,
      "Ġnamed": 4938,
      "Ġign": 4939,
      "df": 4940,
      "check": 4941,
      "title": 4942,
      "Ġtissue": 4943,
      "bur": 4944,
      "Ġimag": 4945,
      "Ġprocedure": 4946,
      ":**": 4947,
      "build": 4948,
      "gar": 4949,
      "ĊĠĠĠĠĠĠĠĠĠĠĠĠĠĠĠĠĠĠĠĠĠĠĠĠĠĠĠ": 4950,
      "ĠUSA": 4951,
      "Ġvariety": 4952,
      "Ġadministration": 4953,
      "ĠMoreover": 4954,
      "lication": 4955,
      "Ġforms": 4956,
      "Ġsources": 4957,
      "Ġmiddle": 4958,
      "Ġgun": 4959,
      "ĠEl": 4960,
      "ĠObama": 4961,
      "Here": 4962,
      "Ġhappen": 4963,
      "Ġchance": 4964,
      "urrent": 4965,
      "Ġcarried": 4966,
      "Ġplaces": 4967,
      "Ġalleged": 4968,
      "ĠRec": 4969,
      "ĠDet": 4970,
      "ameter": 4971,
      "Ġenter": 4972,
      "iques": 4973,
      "Ġseven": 4974,
      "za": 4975,
      "board": 4976,
      "Ġstuff": 4977,
      "Ġmechanism": 4978,
      "ilies": 4979,
      "Ġscient": 4980,
      "Ġsteps": 4981,
      "ĠChar": 4982,
      "Ġwave": 4983,
      "Ġresistance": 4984,
      "Ġox": 4985,
      "stitute": 4986,
      "ui": 4987,
      "ĠAlso": 4988,
      "ael": 4989,
      "Ġdefense": 4990,
      "cons": 4991,
      "ĠĠĠĠĠĠĠĠĠĠĠĠĠĠĠĠĠĠ": 4992,
      "Ġinstit": 4993,
      "airs": 4994,
      "Ġcomplic": 4995,
      "otal": 4996,
      "Inter": 4997,
      "Ġresources": 4998,
      "Ġestablish": 4999,
      "Big": 5000,
      "EC": 5001,
      "Ġformed": 5002,
      "Ġopportunity": 5003,
      "aughter": 5004,
      "Ġreaction": 5005,
      "Ġrow": 5006,
      "Ġmeasures": 5007,
      "Ġ90": 5008,
      "Ġemail": 5009,
      "Ġincome": 5010,
      "Ct": 5011,
      "Ġconducted": 5012,
      "ĠAM": 5013,
      "ford": 5014,
      "ocket": 5015,
      "jection": 5016,
      "PL": 5017,
      "omin": 5018,
      "iform": 5019,
      "Ġblog": 5020,
      "free": 5021,
      "Ġroll": 5022,
      "Ġpeak": 5023,
      "Ġhour": 5024,
      "Ġclient": 5025,
      "kg": 5026,
      "Ġachieve": 5027,
      "Ġconsistent": 5028,
      "Ġformation": 5029,
      "Ġready": 5030,
      "[^": 5031,
      "lam": 5032,
      "Ġmusic": 5033,
      "Ġfresh": 5034,
      "Ġrelatively": 5035,
      "Ġ37": 5036,
      "indows": 5037,
      "Ġswitch": 5038,
      "Ġequation": 5039,
      "Ġquickly": 5040,
      "Ġmachine": 5041,
      "Index": 5042,
      "ĠIL": 5043,
      "EST": 5044,
      "ĠCalifornia": 5045,
      "IA": 5046,
      "Ġremoved": 5047,
      "zym": 5048,
      "Ġchoose": 5049,
      "Ġcalculated": 5050,
      "Ġnut": 5051,
      "Ġplaying": 5052,
      "########": 5053,
      "umin": 5054,
      "idem": 5055,
      "ĠInst": 5056,
      "Ġshape": 5057,
      "Ġinfluence": 5058,
      "Chapter": 5059,
      "ĠLaw": 5060,
      "Ġstatist": 5061,
      "char": 5062,
      "Ġcomments": 5063,
      "Ġexisting": 5064,
      "ĠWashington": 5065,
      "Ġbrief": 5066,
      "Ġnearly": 5067,
      ".\\": 5068,
      "Ġcircumst": 5069,
      "wid": 5070,
      "Ġprocessing": 5071,
      "Ġletters": 5072,
      "itors": 5073,
      "Ġupd": 5074,
      "Ġmoved": 5075,
      "Read": 5076,
      "Ġbottom": 5077,
      "Ġcoord": 5078,
      "level": 5079,
      "Ġfacts": 5080,
      "Ġfear": 5081,
      "lo": 5082,
      "rome": 5083,
      "Ġintr": 5084,
      "tered": 5085,
      "Ġrob": 5086,
      "Ġconvention": 5087,
      "Equ": 5088,
      "Ġsend": 5089,
      "po": 5090,
      "Ġproviding": 5091,
      "info": 5092,
      "Ġrecommend": 5093,
      "nb": 5094,
      "ĠCenter": 5095,
      "url": 5096,
      "ifest": 5097,
      "Ġcommer": 5098,
      "Ġexhib": 5099,
      "MM": 5100,
      "Ġhappened": 5101,
      "atever": 5102,
      "Ġmoving": 5103,
      "gery": 5104,
      "soft": 5105,
      "/(": 5106,
      "ĠJe": 5107,
      "Ġ45": 5108,
      "run": 5109,
      "ĠEnglish": 5110,
      "IB": 5111,
      "Act": 5112,
      "Ġneut": 5113,
      "Ġcycl": 5114,
      "count": 5115,
      "Ġupper": 5116,
      "Ġprove": 5117,
      "Ġ2007": 5118,
      "Ġwide": 5119,
      "Ġthinking": 5120,
      "Ġmag": 5121,
      "\\],": 5122,
      "Ġmal": 5123,
      "Ġ~": 5124,
      "0001": 5125,
      "Ġresponsible": 5126,
      "Ġdelay": 5127,
      "ĠTable": 5128,
      "Ġsave": 5129,
      "iers": 5130,
      "endant": 5131,
      "ensional": 5132,
      "Ġvictim": 5133,
      "Count": 5134,
      "Ġult": 5135,
      "------": 5136,
      "abs": 5137,
      "Ġpul": 5138,
      "Ġdetected": 5139,
      "Ġmaybe": 5140,
      "Ġequival": 5141,
      "Ġdatabase": 5142,
      "Ġmovement": 5143,
      "Ġupdate": 5144,
      "onic": 5145,
      "Ġdemonstrated": 5146,
      "Ġshoot": 5147,
      "Ġmort": 5148,
      "Ġwitness": 5149,
      "Ġblue": 5150,
      "ymbol": 5151,
      "poses": 5152,
      "Ġextrem": 5153,
      "[]": 5154,
      "msgstr": 5155,
      "msgid": 5156,
      "erate": 5157,
      "ĠWhite": 5158,
      "ĠNet": 5159,
      "Ġmembr": 5160,
      "pass": 5161,
      "Ġwww": 5162,
      "Ġnearest": 5163,
      "FA": 5164,
      "roy": 5165,
      "Ġcapital": 5166,
      "stitution": 5167,
      "]:": 5168,
      "di": 5169,
      "inn": 5170,
      "},\\": 5171,
      "Ġconcentr": 5172,
      "Ġvisual": 5173,
      "Ġbacter": 5174,
      "Ġpark": 5175,
      "Ġprograms": 5176,
      "alle": 5177,
      "Ġtree": 5178,
      "Ġpromot": 5179,
      "parent": 5180,
      "ĠEven": 5181,
      "aching": 5182,
      "ĠTest": 5183,
      "Ġ70": 5184,
      "ipe": 5185,
      "Ġbenefit": 5186,
      "ĠTw": 5187,
      "Ġok": 5188,
      "inner": 5189,
      "Ġmur": 5190,
      "Ġselection": 5191,
      "ano": 5192,
      "Ġhttps": 5193,
      "Ġtrade": 5194,
      "Ġclub": 5195,
      "Ġincor": 5196,
      "Ġfinally": 5197,
      "vest": 5198,
      "Ġbud": 5199,
      "Ġmodern": 5200,
      "ync": 5201,
      "Fl": 5202,
      "Ġunits": 5203,
      "QL": 5204,
      "Trans": 5205,
      "Ġdefinition": 5206,
      "place": 5207,
      "Ġcrim": 5208,
      "Ġdistributed": 5209,
      "TY": 5210,
      "Ġplaced": 5211,
      "Ġstraight": 5212,
      "actory": 5213,
      "ALL": 5214,
      "Ġpow": 5215,
      "Ġlib": 5216,
      "orter": 5217,
      "Ġapparent": 5218,
      "cs": 5219,
      "igation": 5220,
      "Ġactivation": 5221,
      "Up": 5222,
      "Ġscreen": 5223,
      "Ġ((": 5224,
      "Oh": 5225,
      "aine": 5226,
      "ĠTex": 5227,
      "Ġanalys": 5228,
      "Ġcomparison": 5229,
      "uced": 5230,
      "Ġdiet": 5231,
      "ĠEuropean": 5232,
      "arant": 5233,
      "otype": 5234,
      "RT": 5235,
      "Ġregul": 5236,
      "Ġhappy": 5237,
      "Ġrace": 5238,
      "Ġuns": 5239,
      "Ġplus": 5240,
      "iable": 5241,
      "Ġsuggested": 5242,
      "tem": 5243,
      "Ġri": 5244,
      "Ġchemical": 5245,
      "}}(": 5246,
      "CI": 5247,
      "Ġnation": 5248,
      "Ġreplacement": 5249,
      "ytes": 5250,
      "%,": 5251,
      "inte": 5252,
      "Î±": 5253,
      "---|": 5254,
      "ensuremath": 5255,
      "Ġtrou": 5256,
      "Ġelection": 5257,
      "}+": 5258,
      "Ġmanner": 5259,
      "ĠAdd": 5260,
      "Ġmagnetic": 5261,
      "Ġreturned": 5262,
      "ĠPaul": 5263,
      "olved": 5264,
      "Ġwait": 5265,
      "Ġadopt": 5266,
      "Ass": 5267,
      "aught": 5268,
      "EE": 5269,
      "())": 5270,
      "Ġcycle": 5271,
      "Ġdrugs": 5272,
      "Ġcontinued": 5273,
      "atically": 5274,
      "Ġ36": 5275,
      "well": 5276,
      "Ġune": 5277,
      "ican": 5278,
      "node": 5279,
      "iment": 5280,
      "ario": 5281,
      "Ġnorm": 5282,
      "Ġlegis": 5283,
      "Ġsell": 5284,
      "Ġclasses": 5285,
      "Ġspread": 5286,
      "Ġscen": 5287,
      "Ġworkers": 5288,
      "Ġnice": 5289,
      "property": 5290,
      "tes": 5291,
      "Ġdiscussed": 5292,
      "Ġsrc": 5293,
      "ART": 5294,
      "Ġeat": 5295,
      "Ġpassed": 5296,
      "inger": 5297,
      "Ġlaws": 5298,
      "Ser": 5299,
      "Ġfib": 5300,
      "Ġfilter": 5301,
      "bb": 5302,
      "ĠFurthermore": 5303,
      "ky": 5304,
      "Ġconflic": 5305,
      "Me": 5306,
      "oute": 5307,
      "ĠUK": 5308,
      "Ġarriv": 5309,
      "ĠAT": 5310,
      "Ġpicked": 5311,
      "ĠPal": 5312,
      "Ġshot": 5313,
      "ĠResearch": 5314,
      "Att": 5315,
      "čĊĠĠĠĠĠĠĠ": 5316,
      "Ġjur": 5317,
      "elle": 5318,
      "oz": 5319,
      "ĠYour": 5320,
      "Ġserve": 5321,
      "object": 5322,
      "Ġonto": 5323,
      "assert": 5324,
      "Ġbond": 5325,
      "ĠBro": 5326,
      "aints": 5327,
      "Ġliquid": 5328,
      "Request": 5329,
      "cks": 5330,
      "uman": 5331,
      "frame": 5332,
      "Ġsusp": 5333,
      "%%": 5334,
      "Ġchannel": 5335,
      "Ġscript": 5336,
      "Ġletter": 5337,
      "Ġcharacteristics": 5338,
      "Ġtestimony": 5339,
      "Ġcert": 5340,
      "ponent": 5341,
      "ifying": 5342,
      "Ġcareer": 5343,
      "ĠSec": 5344,
      "Ġinsert": 5345,
      "ĠList": 5346,
      "Aut": 5347,
      "roller": 5348,
      "Ġsevere": 5349,
      "Ġhealthy": 5350,
      "False": 5351,
      "open": 5352,
      "cel": 5353,
      "coh": 5354,
      "host": 5355,
      "Ġtested": 5356,
      "ignment": 5357,
      "Ġ95": 5358,
      "Ġbeginning": 5359,
      "Group": 5360,
      "Ġcast": 5361,
      "istant": 5362,
      "Ġsen": 5363,
      "Ġcompr": 5364,
      "Ġcivil": 5365,
      "Image": 5366,
      "iced": 5367,
      "Code": 5368,
      "Ġdrink": 5369,
      "Ġinvestigation": 5370,
      "ara": 5371,
      "ĠFound": 5372,
      "ĠHer": 5373,
      "Ġhair": 5374,
      "Ġforeign": 5375,
      "current": 5376,
      "uty": 5377,
      "Rec": 5378,
      "Log": 5379,
      "itti": 5380,
      "ffe": 5381,
      "pected": 5382,
      "Ġfamilies": 5383,
      "uffer": 5384,
      "Ġkids": 5385,
      "*(": 5386,
      "ĠPre": 5387,
      "create": 5388,
      "ĠAc": 5389,
      "Ġsymptoms": 5390,
      "Do": 5391,
      "Ġcircuit": 5392,
      "encing": 5393,
      "Ġmale": 5394,
      "Ġexception": 5395,
      "Ġ2006": 5396,
      "Ġadapt": 5397,
      "overline": 5398,
      "rient": 5399,
      "ship": 5400,
      "ĠSupp": 5401,
      "OM": 5402,
      "ĠNS": 5403,
      "Ġwhom": 5404,
      "Ġdenied": 5405,
      "GL": 5406,
      "Ġcapacity": 5407,
      "Ġdoc": 5408,
      "ĠMor": 5409,
      "Ġplatform": 5410,
      "idden": 5411,
      "Ġtalking": 5412,
      "ingly": 5413,
      "Ġsup": 5414,
      "Ġexpand": 5415,
      "Ġlock": 5416,
      "chen": 5417,
      "Net": 5418,
      "ĠBoard": 5419,
      "Sub": 5420,
      "ĠNULL": 5421,
      "Ġband": 5422,
      "len": 5423,
      "case": 5424,
      "Ġwid": 5425,
      "Ġinterface": 5426,
      "urity": 5427,
      "ĠInter": 5428,
      "Ġdetection": 5429,
      "ĠAssoci": 5430,
      "Ġpanel": 5431,
      "atin": 5432,
      "Ġrul": 5433,
      "Ġincreases": 5434,
      "Ġstudent": 5435,
      "Array": 5436,
      "Ġrout": 5437,
      "Ġoptim": 5438,
      "Ġmodule": 5439,
      "content": 5440,
      "Ġplans": 5441,
      "Ġsolutions": 5442,
      "Ġalternative": 5443,
      "Ġsto": 5444,
      "}}_{": 5445,
      "Ġofficials": 5446,
      "Ġkilled": 5447,
      "Ġbillion": 5448,
      "Ġbul": 5449,
      "PD": 5450,
      "Ġweak": 5451,
      "asp": 5452,
      "osen": 5453,
      "Ġ2000": 5454,
      "ymph": 5455,
      "source": 5456,
      "ansion": 5457,
      "ĠInternational": 5458,
      "Ġstock": 5459,
      "Ġagent": 5460,
      "olean": 5461,
      "Ġmac": 5462,
      "*)": 5463,
      "Ġinduced": 5464,
      "Ġkill": 5465,
      "Ġassume": 5466,
      "Ġapproximately": 5467,
      "Ġspent": 5468,
      "Ġ(**": 5469,
      "Ġcommunication": 5470,
      "iled": 5471,
      "ĠĠĠĠĠĠĠĠĠĠĠĠĠĠĠĠĠĠĠĠ": 5472,
      "Ġexperiment": 5473,
      "Ġmedic": 5474,
      "Ġunf": 5475,
      "à¶": 5476,
      "Ġprem": 5477,
      "itis": 5478,
      "Ġstructures": 5479,
      "reate": 5480,
      "nonumber": 5481,
      "dot": 5482,
      "izer": 5483,
      "Ġcru": 5484,
      "ĠCON": 5485,
      "Ġexperimental": 5486,
      "TER": 5487,
      "\"},": 5488,
      "Ġbab": 5489,
      "Ġ33": 5490,
      "Field": 5491,
      "ĠMost": 5492,
      "Ġplate": 5493,
      "PO": 5494,
      "ini": 5495,
      "Ġstrategy": 5496,
      "*]{}": 5497,
      "ĠAut": 5498,
      "Ġkit": 5499,
      "Ġtransition": 5500,
      "Ġolder": 5501,
      "Yes": 5502,
      "ĠDon": 5503,
      "Ġsummary": 5504,
      "Model": 5505,
      "write": 5506,
      "Ġharm": 5507,
      "ĠÎ¼": 5508,
      "Ġgrowing": 5509,
      "post": 5510,
      "going": 5511,
      "Ġprepared": 5512,
      "Ref": 5513,
      "ĠHam": 5514,
      "Ġ48": 5515,
      "sf": 5516,
      "Ġexplain": 5517,
      "Ġthrow": 5518,
      "ĠTO": 5519,
      "AV": 5520,
      "Ġexercise": 5521,
      "Ġdied": 5522,
      "RI": 5523,
      "Ġedge": 5524,
      "Ġchallenge": 5525,
      "Ġspecifically": 5526,
      "Ġcontinuous": 5527,
      "ĠOff": 5528,
      "Ġtrain": 5529,
      "Ġshift": 5530,
      "Ġlabor": 5531,
      "uing": 5532,
      "Ġbehavi": 5533,
      "ĠPlaintiff": 5534,
      "Ġencour": 5535,
      "ĠCode": 5536,
      "core": 5537,
      "icity": 5538,
      "Ġclick": 5539,
      "Ġguy": 5540,
      "Ġunless": 5541,
      "Ġoffers": 5542,
      "Ġconfirmed": 5543,
      "Ġauto": 5544,
      "bra": 5545,
      "ements": 5546,
      "Ġsummer": 5547,
      "Ġcombined": 5548,
      "Ġtouch": 5549,
      "ĠTV": 5550,
      "Ġtruth": 5551,
      "api": 5552,
      "php": 5553,
      "ĠID": 5554,
      "Ġguid": 5555,
      "Ġanalyzed": 5556,
      "Ġpiece": 5557,
      "Ġfemale": 5558,
      "rench": 5559,
      "ithub": 5560,
      "Ġentry": 5561,
      "omb": 5562,
      "Ġvac": 5563,
      "Ġdespite": 5564,
      "Ġsun": 5565,
      "ĠĠĠĠĠĠĠĠĠĠĠĠĠĠĠĠĠĠĠĠĠ": 5566,
      "Ġrare": 5567,
      "ometry": 5568,
      "Ġseed": 5569,
      "berg": 5570,
      "Ġnone": 5571,
      "Ġcommercial": 5572,
      "oul": 5573,
      "Ġleads": 5574,
      "ĠGroup": 5575,
      "ria": 5576,
      "Ġpush": 5577,
      "stract": 5578,
      "Ġtrig": 5579,
      "Ġtend": 5580,
      "enced": 5581,
      "xx": 5582,
      "Ġcalls": 5583,
      "anned": 5584,
      "Ġrapid": 5585,
      "Ġmonitor": 5586,
      "Ġded": 5587,
      "Ġdescription": 5588,
      "itivity": 5589,
      "Ġhop": 5590,
      "Ġprobability": 5591,
      "Ġdiscussion": 5592,
      "NE": 5593,
      "Ġdanger": 5594,
      "wood": 5595,
      "&\\": 5596,
      "ĠEm": 5597,
      "Ġanimal": 5598,
      "Ġ_{": 5599,
      "Ġnucle": 5600,
      "Ġwants": 5601,
      "Ġguess": 5602,
      "Ġhuge": 5603,
      "Ġprepar": 5604,
      "normal": 5605,
      "Ġmit": 5606,
      "Ġmentioned": 5607,
      "Ġbeautiful": 5608,
      "User": 5609,
      "Can": 5610,
      "Why": 5611,
      "ĠAtt": 5612,
      "inese": 5613,
      "Ġimproved": 5614,
      "\"></": 5615,
      "MO": 5616,
      "Ġthick": 5617,
      "Ġsuccessful": 5618,
      "Ġtraditional": 5619,
      "çļ": 5620,
      "Ġlip": 5621,
      "Ġdoll": 5622,
      "agement": 5623,
      "olar": 5624,
      "ipp": 5625,
      "omas": 5626,
      "Ġaward": 5627,
      "upreme": 5628,
      "Ġnil": 5629,
      "Ġ34": 5630,
      "igration": 5631,
      "Ġcouldn": 5632,
      "gif": 5633,
      "AND": 5634,
      "Ġlinks": 5635,
      "Ġ});": 5636,
      "Ġpetition": 5637,
      "Ġil": 5638,
      "bug": 5639,
      "}}{": 5640,
      "Ġrelation": 5641,
      "CF": 5642,
      "ipment": 5643,
      "ĠSuper": 5644,
      "çļĦ": 5645,
      "portion": 5646,
      "Ġbrother": 5647,
      "Ġwhereas": 5648,
      "sole": 5649,
      "Ġminor": 5650,
      "ĠAD": 5651,
      "Ġtherm": 5652,
      "ingu": 5653,
      "Ġefficient": 5654,
      "ĠWilli": 5655,
      "Ġsentence": 5656,
      "Element": 5657,
      "ĠPost": 5658,
      "Ġimplic": 5659,
      "display": 5660,
      "asma": 5661,
      "Ġbill": 5662,
      "Gen": 5663,
      "Ġdismiss": 5664,
      "iling": 5665,
      "Sigma": 5666,
      "asks": 5667,
      "arian": 5668,
      "Node": 5669,
      "Ġemployees": 5670,
      "Reg": 5671,
      "ĠNote": 5672,
      "Ġmetal": 5673,
      "Ġoccup": 5674,
      "Ġgone": 5675,
      "ellig": 5676,
      "Ġnovel": 5677,
      "Ġfloor": 5678,
      "Ġnuclear": 5679,
      "Ġkept": 5680,
      "Ġserved": 5681,
      "cho": 5682,
      "acters": 5683,
      "func": 5684,
      "ĠRNA": 5685,
      "Ġsexual": 5686,
      "Ġsymb": 5687,
      "Ġtypically": 5688,
      "Ġdriver": 5689,
      "ĠĠĠĠĠĠĠĠĠĠĠĠĠĠĠĠĠĠĠĠĠĠĠ": 5690,
      "unday": 5691,
      "Ġprofessional": 5692,
      "Ġcircumstances": 5693,
      "page": 5694,
      "Ġminimum": 5695,
      "Ġintroduced": 5696,
      "chers": 5697,
      "}-": 5698,
      "Ġjava": 5699,
      "Ġdiss": 5700,
      "Ġhistor": 5701,
      "ĠNews": 5702,
      "Ġraised": 5703,
      "Ġcredit": 5704,
      "abil": 5705,
      "Ġthank": 5706,
      "Ġtransl": 5707,
      "ondon": 5708,
      "orb": 5709,
      "Ġexposure": 5710,
      "Well": 5711,
      ")?": 5712,
      "doc": 5713,
      "uate": 5714,
      "iders": 5715,
      "Ġut": 5716,
      "Ġhandle": 5717,
      "Ġcauses": 5718,
      "ĠBank": 5719,
      "src": 5720,
      "Ġappellant": 5721,
      "frak": 5722,
      "ĠFigure": 5723,
      "ĠCongress": 5724,
      "Ġbiggest": 5725,
      "Ġeye": 5726,
      "Ġcorrelation": 5727,
      "ded": 5728,
      "/**": 5729,
      "ĠSur": 5730,
      "004": 5731,
      "Ġefforts": 5732,
      "before": 5733,
      "icial": 5734,
      "ado": 5735,
      "Ġaffected": 5736,
      "ĠBlack": 5737,
      "Ġkid": 5738,
      "Ġstudied": 5739,
      "Ġ(\"": 5740,
      "Ġtools": 5741,
      "Ġsymm": 5742,
      "ĠItal": 5743,
      "ptions": 5744,
      "Service": 5745,
      "Ġgold": 5746,
      "Ġoperations": 5747,
      "mathfrak": 5748,
      "Ġcorpor": 5749,
      "izations": 5750,
      "FI": 5751,
      "Ġchrom": 5752,
      "Ġsurround": 5753,
      "Ġcop": 5754,
      "Pr": 5755,
      "BI": 5756,
      "Ġreached": 5757,
      "Ġcatch": 5758,
      "Ġneur": 5759,
      "typ": 5760,
      "Ġloop": 5761,
      "edom": 5762,
      "ĠDan": 5763,
      "Calculate": 5764,
      "ĠIndia": 5765,
      "ĠOh": 5766,
      "Ġperhaps": 5767,
      "Ġ-->": 5768,
      "summary": 5769,
      "ĠCalculate": 5770,
      "Ġtempor": 5771,
      "agon": 5772,
      "While": 5773,
      "BA": 5774,
      "rical": 5775,
      "Ġvote": 5776,
      "Ġofficer": 5777,
      "ĠJer": 5778,
      "Ġjudge": 5779,
      "Ġsymmet": 5780,
      "Ġarbit": 5781,
      "********************************": 5782,
      "yst": 5783,
      "Ġhypot": 5784,
      "ĊĊĠĠĠĠĠĠ": 5785,
      "Ġvan": 5786,
      "faces": 5787,
      "Ġsmooth": 5788,
      "Ġremaining": 5789,
      "ascular": 5790,
      "Ġrequirements": 5791,
      "Ġ2005": 5792,
      "Ġestimated": 5793,
      "PC": 5794,
      "Ġ42": 5795,
      "Ġquantum": 5796,
      "SH": 5797,
      "Ġsurgery": 5798,
      "Ġconstr": 5799,
      "ologies": 5800,
      "rees": 5801,
      "pack": 5802,
      "Ġwish": 5803,
      "ASS": 5804,
      "Ġtechniques": 5805,
      "ĠNOT": 5806,
      "esus": 5807,
      "ĠJew": 5808,
      "Ġagreed": 5809,
      "Ġoccurred": 5810,
      "Ġexplained": 5811,
      "Ġschools": 5812,
      "See": 5813,
      "Ġwouldn": 5814,
      "Ġarm": 5815,
      "Ã¶": 5816,
      "Ġrestaur": 5817,
      "Ġprotocol": 5818,
      "Ġstatute": 5819,
      "Ġsuggests": 5820,
      "ĠRem": 5821,
      "SC": 5822,
      "Ġcollected": 5823,
      "Ġwel": 5824,
      "Ġbelong": 5825,
      "ĠEast": 5826,
      "Ġfaith": 5827,
      "nce": 5828,
      "dered": 5829,
      "âĢ²": 5830,
      "Ġfeet": 5831,
      ".](": 5832,
      "Ġchurch": 5833,
      "Ste": 5834,
      "DR": 5835,
      "ĠAnt": 5836,
      "Ġmental": 5837,
      "Ġsociety": 5838,
      "Ent": 5839,
      "Ġalgorithm": 5840,
      "mand": 5841,
      "resents": 5842,
      "Ġthanks": 5843,
      "icrosoft": 5844,
      "Ġcitiz": 5845,
      "ĠGovern": 5846,
      "Ġfarm": 5847,
      "icks": 5848,
      "Ġadvantage": 5849,
      "jo": 5850,
      "nam": 5851,
      "house": 5852,
      "opyright": 5853,
      "ĠIll": 5854,
      "Ġcertainly": 5855,
      "orry": 5856,
      "Ġbug": 5857,
      "ĠMus": 5858,
      "Ġcontrols": 5859,
      "Ġforces": 5860,
      "Ġadding": 5861,
      "Ġlatest": 5862,
      ")/(": 5863,
      "KE": 5864,
      "Ġtick": 5865,
      "Ġglass": 5866,
      "Line": 5867,
      "space": 5868,
      "3320": 5869,
      "Ġcharged": 5870,
      "Ġcommunic": 5871,
      "orge": 5872,
      "ĠEar": 5873,
      "Sp": 5874,
      "Ġrise": 5875,
      "Ġking": 5876,
      "Ġ\"\\": 5877,
      "poss": 5878,
      "omorph": 5879,
      "CON": 5880,
      "rich": 5881,
      "Color": 5882,
      "Ġsurvival": 5883,
      "Ġexternal": 5884,
      "Ġ![": 5885,
      "\").": 5886,
      "Ġcomfort": 5887,
      "Comp": 5888,
      ".</": 5889,
      "Message": 5890,
      "Ġprosec": 5891,
      "Ġleaves": 5892,
      "Ġmist": 5893,
      "aser": 5894,
      "ĠEv": 5895,
      "subset": 5896,
      "iny": 5897,
      "duc": 5898,
      "Ġterr": 5899,
      "how": 5900,
      "Ġ(!": 5901,
      "Ġdriving": 5902,
      "Ġcriminal": 5903,
      "ouble": 5904,
      "Ġspirit": 5905,
      "Ġopening": 5906,
      "dict": 5907,
      "Ġconvert": 5908,
      "Ġeconomy": 5909,
      "ĠRE": 5910,
      ".$$": 5911,
      "Ġcup": 5912,
      "ota": 5913,
      "Ġmill": 5914,
      "Ġformat": 5915,
      "Ġfuel": 5916,
      "!\\": 5917,
      "Ġthread": 5918,
      "ptr": 5919,
      "Ġer": 5920,
      "Ġgeneration": 5921,
      "Ġviews": 5922,
      "Fil": 5923,
      "Ġampl": 5924,
      "Click": 5925,
      "''": 5926,
      "Ġbool": 5927,
      "Ġvoice": 5928,
      "Ġextent": 5929,
      "ĠSet": 5930,
      "Ġstorage": 5931,
      "ya": 5932,
      "Ġagency": 5933,
      "Ġrecords": 5934,
      "isation": 5935,
      "Ġabsence": 5936,
      "model": 5937,
      "ulf": 5938,
      "ANT": 5939,
      "Ġcoe": 5940,
      "rid": 5941,
      "Ġmissing": 5942,
      "**]{},": 5943,
      "ĠER": 5944,
      "Ġgrand": 5945,
      "Ġexperien": 5946,
      "Ġsav": 5947,
      "Ġpool": 5948,
      "ĠDirect": 5949,
      "itz": 5950,
      "Some": 5951,
      "Our": 5952,
      "github": 5953,
      "Ġpros": 5954,
      "ows": 5955,
      "Ġassociation": 5956,
      "Ġmotor": 5957,
      "Ġdownload": 5958,
      "lebr": 5959,
      "Ġwind": 5960,
      "ialog": 5961,
      "Ġempt": 5962,
      "Ġillust": 5963,
      "hetic": 5964,
      "PP": 5965,
      "Ġtal": 5966,
      "Ġpeace": 5967,
      "Ġdebt": 5968,
      "cohol": 5969,
      "Ġoptical": 5970,
      "âĢĬ": 5971,
      "cp": 5972,
      "Ġpun": 5973,
      "ographic": 5974,
      "Script": 5975,
      "amine": 5976,
      "Ġteacher": 5977,
      "range": 5978,
      "Ġfold": 5979,
      "sey": 5980,
      "Lambda": 5981,
      "ariant": 5982,
      "cknow": 5983,
      "Ġrank": 5984,
      "result": 5985,
      "FT": 5986,
      "Ġcreating": 5987,
      "dir": 5988,
      "Ġbuffer": 5989,
      "mittee": 5990,
      "Ġmolecular": 5991,
      "Ġvent": 5992,
      "itled": 5993,
      "Ġdrop": 5994,
      "ĠNone": 5995,
      "Ġguys": 5996,
      "Ġreturns": 5997,
      "null": 5998,
      "rd": 5999,
      "ython": 6000,
      "Ġsubjects": 6001,
      "Co": 6002,
      "isher": 6003,
      "à·": 6004,
      "Ġcardi": 6005,
      "ĠAny": 6006,
      "Ġinflamm": 6007,
      "while": 6008,
      "------------------------------------------------": 6009,
      "Ġdistinct": 6010,
      "ĠIndian": 6011,
      "Ġproperly": 6012,
      "Ġformula": 6013,
      "Ġvirus": 6014,
      "ĠEach": 6015,
      "Ġintended": 6016,
      "Ġpicture": 6017,
      "Ġ--------": 6018,
      "ĠClass": 6019,
      "ĠSmith": 6020,
      "Ġdream": 6021,
      "Ġexplicit": 6022,
      "care": 6023,
      "Ġfootball": 6024,
      "bm": 6025,
      "xml": 6026,
      "fected": 6027,
      "ĠSupreme": 6028,
      "âĢĿ.": 6029,
      "332086": 6030,
      "hi": 6031,
      "Ġrepresents": 6032,
      "ĠĠĠĠĠĠĠĠĠĠĠĠĠĠĠĠĠĠĠĠĠĠ": 6033,
      "LS": 6034,
      "}}}": 6035,
      "Ġshared": 6036,
      "Ġresponses": 6037,
      "Ġpossibility": 6038,
      "Ġcharacters": 6039,
      "Ġorganization": 6040,
      "ĠCanada": 6041,
      "Ġdiagnosis": 6042,
      "Ġslightly": 6043,
      "Ġfish": 6044,
      "istan": 6045,
      "101": 6046,
      "Ġmovie": 6047,
      "Ġresolution": 6048,
      "________________": 6049,
      "ainer": 6050,
      "Ġstream": 6051,
      "Ġcovered": 6052,
      "ca": 6053,
      "what": 6054,
      "Ġlargest": 6055,
      "Ġlymph": 6056,
      "Build": 6057,
      "Ð°Ð": 6058,
      "select": 6059,
      "child": 6060,
      "Per": 6061,
      "Ġcoverage": 6062,
      "TE": 6063,
      "Ġpure": 6064,
      "ĠDE": 6065,
      "elled": 6066,
      "Ġerrors": 6067,
      "ITH": 6068,
      "sens": 6069,
      "}}^": 6070,
      "Ġcontrolled": 6071,
      "Ġideas": 6072,
      "Rev": 6073,
      "Ġsecondary": 6074,
      "Ġpurposes": 6075,
      "Ġprojects": 6076,
      "mem": 6077,
      "ferent": 6078,
      "Ġderived": 6079,
      "005": 6080,
      "Ġspeech": 6081,
      "Ġcat": 6082,
      "induced": 6083,
      "Ġsitu": 6084,
      "format": 6085,
      "ĠHIV": 6086,
      "Ġdry": 6087,
      "Ġtechnique": 6088,
      "anging": 6089,
      "Ġcold": 6090,
      "Ġfirm": 6091,
      "kr": 6092,
      "itect": 6093,
      "zon": 6094,
      "Ġteams": 6095,
      "Ġpolic": 6096,
      "ĠMary": 6097,
      "Ġinterests": 6098,
      "Ġconventional": 6099,
      "Ġsust": 6100,
      "BL": 6101,
      "Ġauthority": 6102,
      "Ġmembrane": 6103,
      "Ġprotection": 6104,
      "Ġreceptor": 6105,
      "Ġremainder": 6106,
      "OG": 6107,
      "Pe": 6108,
      "ĠGreen": 6109,
      "Ġelectric": 6110,
      "actor": 6111,
      "Ġexpert": 6112,
      "ĠRel": 6113,
      "Ġregist": 6114,
      "night": 6115,
      "uesday": 6116,
      "Ġsurvey": 6117,
      "Ġhus": 6118,
      "Ġ38": 6119,
      "However": 6120,
      "Ġepis": 6121,
      "Ġsequences": 6122,
      "ĠChinese": 6123,
      "First": 6124,
      "cdots": 6125,
      "PT": 6126,
      "Ġvill": 6127,
      "Ġenzym": 6128,
      "ĠFoundation": 6129,
      "abla": 6130,
      "Ġkin": 6131,
      "Ġdirector": 6132,
      "Ġelim": 6133,
      "#:": 6134,
      "${": 6135,
      "Ø§": 6136,
      "draw": 6137,
      "Ġdoubt": 6138,
      "Ġexchange": 6139,
      "ĠUnder": 6140,
      "Ġexistence": 6141,
      "Ġsquare": 6142,
      "iler": 6143,
      "Ġjoint": 6144,
      "Ġinvolve": 6145,
      "Ġemotion": 6146,
      "Ġowners": 6147,
      "rian": 6148,
      "ĠRet": 6149,
      "Ġdecreased": 6150,
      "QU": 6151,
      "Ġimportance": 6152,
      "ivery": 6153,
      "xture": 6154,
      "ATION": 6155,
      "Box": 6156,
      "aper": 6157,
      "Ġwhatever": 6158,
      "rivate": 6159,
      "Ġfeeling": 6160,
      "Ġstrugg": 6161,
      "Ġsubstr": 6162,
      "Ġruns": 6163,
      "look": 6164,
      "Ġgar": 6165,
      "Ġgal": 6166,
      "Ġholding": 6167,
      "appa": 6168,
      "Ġ2004": 6169,
      "Ġnoise": 6170,
      "Ġvert": 6171,
      "specific": 6172,
      "kin": 6173,
      "acebook": 6174,
      "Ġrepro": 6175,
      "oman": 6176,
      "Ġprofile": 6177,
      "gy": 6178,
      "esis": 6179,
      "Ġchain": 6180,
      "ĠCirc": 6181,
      "allel": 6182,
      "Ġbutton": 6183,
      "ĠRober": 6184,
      "names": 6185,
      "Ġsales": 6186,
      "Ġearth": 6187,
      "num": 6188,
      "web": 6189,
      "default": 6190,
      "åı": 6191,
      "anges": 6192,
      "Ġexcell": 6193,
      "Ġwood": 6194,
      "Ġoffered": 6195,
      "cence": 6196,
      "ĠBen": 6197,
      "det": 6198,
      "ago": 6199,
      "ypes": 6200,
      "ĠJack": 6201,
      "Ġprotected": 6202,
      "icians": 6203,
      "ilos": 6204,
      "Ġpatterns": 6205,
      "dr": 6206,
      "Ġreferred": 6207,
      "Ġcryst": 6208,
      "rep": 6209,
      "Ġgain": 6210,
      "aud": 6211,
      "Ġmechanisms": 6212,
      "**)": 6213,
      "Ġconfiguration": 6214,
      "Ġstatements": 6215,
      "ĠTexas": 6216,
      "ĠLondon": 6217,
      "/\\": 6218,
      "ki": 6219,
      "ĠCouncil": 6220,
      "ĠLem": 6221,
      "UM": 6222,
      "Ġcrime": 6223,
      "////////////////": 6224,
      "utor": 6225,
      "Ġgenerate": 6226,
      "nabla": 6227,
      "Ġcir": 6228,
      "mic": 6229,
      "Ġinstr": 6230,
      "ĠTwo": 6231,
      "Ġofficers": 6232,
      "Ġannounced": 6233,
      "Ġfinite": 6234,
      "Ġ------------": 6235,
      "ĠType": 6236,
      "RS": 6237,
      "ads": 6238,
      "pled": 6239,
      "Ġappeared": 6240,
      "dots": 6241,
      "Ġlibrary": 6242,
      "Ġevolution": 6243,
      "ĊĊĉ": 6244,
      "Ġdescribe": 6245,
      "ĠStreet": 6246,
      "orders": 6247,
      "ĠBritish": 6248,
      "ĠSolve": 6249,
      "circ": 6250,
      "process": 6251,
      "othing": 6252,
      "Ġdiag": 6253,
      "Ġstre": 6254,
      "Ġrefer": 6255,
      "Ġconvers": 6256,
      "ĠDay": 6257,
      "main": 6258,
      "Ġmm": 6259,
      "ĠFriday": 6260,
      "Ġoperating": 6261,
      "Ġing": 6262,
      "Ġcontained": 6263,
      "local": 6264,
      "plify": 6265,
      "oted": 6266,
      "Method": 6267,
      "Ġdeveloping": 6268,
      "ipal": 6269,
      "Ġreality": 6270,
      "ĠHT": 6271,
      "Ġmeant": 6272,
      "Ġboy": 6273,
      "Ġdraft": 6274,
      "lif": 6275,
      "Ġspot": 6276,
      "Ġexcess": 6277,
      "opic": 6278,
      "Ġattract": 6279,
      "apy": 6280,
      "Ġcompleted": 6281,
      "Ġconserv": 6282,
      "Ġenvironmental": 6283,
      "NO": 6284,
      "nbsp": 6285,
      "Ġequipment": 6286,
      "Ġcurve": 6287,
      "!--": 6288,
      "Part": 6289,
      "ancing": 6290,
      "abb": 6291,
      "ĠMal": 6292,
      "Ġattorney": 6293,
      "ĠFOR": 6294,
      "Ġquery": 6295,
      "Ġpregn": 6296,
      "you": 6297,
      "fa": 6298,
      "ãģĦ": 6299,
      "Ġsession": 6300,
      "Ġchronic": 6301,
      "Ġinterested": 6302,
      "Ġheavy": 6303,
      "Ġaren": 6304,
      "Ġdecrease": 6305,
      "ednes": 6306,
      "Ġneighbor": 6307,
      "Phi": 6308,
      "cluding": 6309,
      "Ġimmune": 6310,
      "ĠSuch": 6311,
      "Ġsignals": 6312,
      "reated": 6313,
      "Ġmobile": 6314,
      "Ġappar": 6315,
      "Ġdiab": 6316,
      "Ġapprec": 6317,
      "Rep": 6318,
      "Ġbow": 6319,
      "Ġdisp": 6320,
      "diction": 6321,
      "CG": 6322,
      "Ġpartners": 6323,
      "Ġweap": 6324,
      "Ġdiseases": 6325,
      "ĠĠĠĠĠĠĠĠĠĠĠĠĠĠĠĠĠĠĠĠĠĠĠĠĠĠĠĠĠĠĠĠĠĠĠĠĠĠĠĠĠĠĠĠĠĠĠĠĠĠĠĠĠĠĠĠ": 6326,
      "Ġconcentrations": 6327,
      "just": 6328,
      "Ġindicates": 6329,
      "Ġlit": 6330,
      "ĠArm": 6331,
      "Ġconfirm": 6332,
      "Ġsuff": 6333,
      "Ġconver": 6334,
      "Ġneuro": 6335,
      "ci": 6336,
      "Ġinstant": 6337,
      "aming": 6338,
      "ĠAre": 6339,
      "dem": 6340,
      "Ġmere": 6341,
      "Ġtox": 6342,
      "Ġradio": 6343,
      "ker": 6344,
      "Ġring": 6345,
      "elines": 6346,
      "ĠTheorem": 6347,
      "ny": 6348,
      "ĠFe": 6349,
      "orrow": 6350,
      "Ġborn": 6351,
      "Ġinteractions": 6352,
      "ĠOver": 6353,
      "lock": 6354,
      "ln": 6355,
      "ady": 6356,
      "Query": 6357,
      "Ġplane": 6358,
      "Ġequivalent": 6359,
      "Ġagg": 6360,
      "last": 6361,
      "ĠPet": 6362,
      "Ġcarbon": 6363,
      "ĊĊĊĊ": 6364,
      "omes": 6365,
      "Ġstars": 6366,
      "Ġexamples": 6367,
      "Ġpolar": 6368,
      "sem": 6369,
      "ursday": 6370,
      "Ġrepeated": 6371,
      "sin": 6372,
      "Ġfra": 6373,
      "after": 6374,
      "apache": 6375,
      "][": 6376,
      "Ġholds": 6377,
      "ĠBay": 6378,
      "Ġestimate": 6379,
      "XX": 6380,
      "ructions": 6381,
      "Ġentered": 6382,
      "ponse": 6383,
      "Ġfunds": 6384,
      "Î¼": 6385,
      "Ġknows": 6386,
      "valid": 6387,
      "ĠMonday": 6388,
      "==========": 6389,
      "Ġhappens": 6390,
      "ĠTechn": 6391,
      "etes": 6392,
      "ĠKe": 6393,
      "Ġcharges": 6394,
      "ĠAustralia": 6395,
      "ednesday": 6396,
      "asure": 6397,
      "ĠSunday": 6398,
      "ĠYes": 6399,
      "ĠService": 6400,
      "Ġnorth": 6401,
      "ĠAS": 6402,
      "Ġhighlight": 6403,
      "Ġjobs": 6404,
      "false": 6405,
      "ĠâĢ¦": 6406,
      ".[@": 6407,
      "ĠCa": 6408,
      "(&": 6409,
      "Ġanc": 6410,
      "aneous": 6411,
      "ilit": 6412,
      "icated": 6413,
      "\",\"": 6414,
      "Ã¨": 6415,
      "ston": 6416,
      "Don": 6417,
      "Ġresear": 6418,
      "Ġahead": 6419,
      "istent": 6420,
      "Ġtrend": 6421,
      "ĠChurch": 6422,
      "yr": 6423,
      "Ġplants": 6424,
      "Ġproportion": 6425,
      "ĠJames": 6426,
      "Ġanalyses": 6427,
      "ĠLord": 6428,
      "ba": 6429,
      "hens": 6430,
      "Ġmaintain": 6431,
      "Ġempty": 6432,
      "organ": 6433,
      "ĠOut": 6434,
      "crete": 6435,
      "2015": 6436,
      "Ġscience": 6437,
      "Ġopened": 6438,
      "ugin": 6439,
      "Ġimplementation": 6440,
      "ĠLeague": 6441,
      "illa": 6442,
      "Source": 6443,
      "Ġmaster": 6444,
      "Ġlatter": 6445,
      "ban": 6446,
      "Ġbalance": 6447,
      "jected": 6448,
      "eless": 6449,
      "Ġ()": 6450,
      "ĠWestern": 6451,
      "flu": 6452,
      "ĠInstitute": 6453,
      "Ġsubstantial": 6454,
      "Ġ×": 6455,
      "Psi": 6456,
      "à¤": 6457,
      "Ġfrag": 6458,
      "Ġoutcome": 6459,
      "Ġmixed": 6460,
      "Ġrepresentation": 6461,
      "Ġwat": 6462,
      "imer": 6463,
      "Ġagents": 6464,
      "Ġspring": 6465,
      "Ġcandidate": 6466,
      "00000": 6467,
      "lem": 6468,
      "âĸ": 6469,
      "ename": 6470,
      "oom": 6471,
      "riage": 6472,
      "Ġraise": 6473,
      "Ġjuris": 6474,
      "Ġstable": 6475,
      "uries": 6476,
      "Ġincorpor": 6477,
      "ĠBoth": 6478,
      "ailed": 6479,
      "Ġvacc": 6480,
      "Web": 6481,
      "Ġpercentage": 6482,
      "Ġextremely": 6483,
      "ĠCommun": 6484,
      "ĠCommittee": 6485,
      "ua": 6486,
      "iveness": 6487,
      "Ġ2019": 6488,
      "Ġguarant": 6489,
      "ldots": 6490,
      "Ġadult": 6491,
      "ups": 6492,
      "-------": 6493,
      "ĠWell": 6494,
      "ĠEq": 6495,
      "Ġplasma": 6496,
      "ĠJesus": 6497,
      "Ġflex": 6498,
      "query": 6499,
      "Ġconclusion": 6500,
      "conf": 6501,
      "inder": 6502,
      "According": 6503,
      "ka": 6504,
      "ĠCH": 6505,
      "Ġbudget": 6506,
      "ĠSal": 6507,
      "Ġrecovery": 6508,
      "supplementary": 6509,
      "Ġsupply": 6510,
      "Ġmeasurements": 6511,
      "ĠCA": 6512,
      "PI": 6513,
      "]),": 6514,
      "ĠIns": 6515,
      "Ġbreast": 6516,
      "Ġdefendants": 6517,
      "ĠHol": 6518,
      "Ġspecified": 6519,
      "Ġinvestment": 6520,
      "Ġdaughter": 6521,
      "{{": 6522,
      "Ġreb": 6523,
      "oret": 6524,
      "MD": 6525,
      "Ġextension": 6526,
      "lands": 6527,
      "ĠDi": 6528,
      "Ġdose": 6529,
      "MT": 6530,
      "ishes": 6531,
      ")=\\": 6532,
      "Ġburn": 6533,
      "Ġmouse": 6534,
      "Ġconsc": 6535,
      "Ġtables": 6536,
      "Ġcalling": 6537,
      "MR": 6538,
      "Ġdigital": 6539,
      "Ġterror": 6540,
      ")}\\": 6541,
      "Ġarguments": 6542,
      "ĠJudge": 6543,
      "Ġhusband": 6544,
      "Call": 6545,
      "Ġappoint": 6546,
      "Ġcateg": 6547,
      "ICE": 6548,
      "hal": 6549,
      "Ġevaluated": 6550,
      "ĠWhich": 6551,
      "osc": 6552,
      "Ġcollege": 6553,
      "iat": 6554,
      "ĠPort": 6555,
      "ĠMet": 6556,
      "onald": 6557,
      "Ġinner": 6558,
      "Ġ75": 6559,
      "appro": 6560,
      "Ġcelebr": 6561,
      "Ġelev": 6562,
      "Ġparticles": 6563,
      "Ġelectron": 6564,
      "Ġbooks": 6565,
      "front": 6566,
      "ĠMichael": 6567,
      "ĠMat": 6568,
      "arden": 6569,
      "edy": 6570,
      "Ġabuse": 6571,
      "Ġleaving": 6572,
      "sg": 6573,
      ")\"": 6574,
      "ville": 6575,
      "ĠSecond": 6576,
      "rowser": 6577,
      "Ġcatal": 6578,
      "Ġsigned": 6579,
      "Ġleader": 6580,
      "Ġcentury": 6581,
      "button": 6582,
      "ĠPeople": 6583,
      "ĠAir": 6584,
      "ĠUnion": 6585,
      "Ġliterature": 6586,
      "arp": 6587,
      "Ġcriteria": 6588,
      "ĠAddition": 6589,
      "Ġmetabol": 6590,
      "ĠIran": 6591,
      "dimensional": 6592,
      "Ġmostly": 6593,
      "^âĪĴ": 6594,
      "eloc": 6595,
      "Ġdesc": 6596,
      ".**": 6597,
      "inations": 6598,
      "ĊĠĠĠĠĠĠĠĠĠĠĠĠ": 6599,
      "Ġcomposition": 6600,
      "ĠCollege": 6601,
      "Ġlearned": 6602,
      "$(": 6603,
      "Ġwire": 6604,
      "Ġstreet": 6605,
      "Ġassay": 6606,
      "INT": 6607,
      "gt": 6608,
      "ĠBre": 6609,
      "ĠEvery": 6610,
      "\\|": 6611,
      "alysis": 6612,
      "Ġgoals": 6613,
      "ĠWhy": 6614,
      "Ġindeed": 6615,
      "Ġseemed": 6616,
      "ĠChristian": 6617,
      "SI": 6618,
      "RL": 6619,
      "ĠKore": 6620,
      "ĠRead": 6621,
      "BD": 6622,
      "gers": 6623,
      "ĠRich": 6624,
      "cor": 6625,
      "Ġhaven": 6626,
      "Ġcompens": 6627,
      "?âĢĿ": 6628,
      "Ġsymbol": 6629,
      "Ġ500": 6630,
      "ĠAL": 6631,
      "lets": 6632,
      "Ġshut": 6633,
      "({": 6634,
      "ĠMiss": 6635,
      "ĠBel": 6636,
      "Ġtransmission": 6637,
      "Input": 6638,
      "Ġgenetic": 6639,
      "Ġrock": 6640,
      "Ġfluid": 6641,
      "Ġangle": 6642,
      "Back": 6643,
      "ĠMart": 6644,
      "Ġalcohol": 6645,
      "Ġpartner": 6646,
      "Ġstandards": 6647,
      "Î²": 6648,
      "Ġtub": 6649,
      "Ġwarm": 6650,
      "Ġquarter": 6651,
      "Ġissued": 6652,
      "Any": 6653,
      "Ġfunding": 6654,
      "ortunately": 6655,
      "Ġmanufacture": 6656,
      "Ġlif": 6657,
      "search": 6658,
      "ĠMany": 6659,
      "-----": 6660,
      "Ġapproved": 6661,
      "Mon": 6662,
      "Client": 6663,
      "Ġpositions": 6664,
      "Ġrecorded": 6665,
      "abilities": 6666,
      "ĠPD": 6667,
      "aturday": 6668,
      "Ġ2001": 6669,
      "Ġdecisions": 6670,
      "Ġ64": 6671,
      "á»": 6672,
      "Ġchanging": 6673,
      "Ġ\"[": 6674,
      "Ġwarrant": 6675,
      "ensor": 6676,
      "Ġapparatus": 6677,
      "ĠFinally": 6678,
      "Ġevaluation": 6679,
      "ceived": 6680,
      "kappa": 6681,
      "These": 6682,
      "Ġprocedures": 6683,
      "anes": 6684,
      "Ġbeg": 6685,
      "Ġrac": 6686,
      "ĠAmericans": 6687,
      "reshold": 6688,
      "Ġjoin": 6689,
      "Ġchosen": 6690,
      "Ġuniform": 6691,
      "Ġinteger": 6692,
      "rive": 6693,
      "oking": 6694,
      "Ġdepends": 6695,
      "ITY": 6696,
      "Ġcommitted": 6697,
      ")*(": 6698,
      "rr": 6699,
      "pload": 6700,
      "120": 6701,
      "Ġidentity": 6702,
      "Ã¼": 6703,
      "ĠMo": 6704,
      "neg": 6705,
      "Ġmanager": 6706,
      "Ġtraffic": 6707,
      "Ġvolt": 6708,
      "ĠCam": 6709,
      "Ġexcellent": 6710,
      "Ġrecall": 6711,
      "ĠDuring": 6712,
      "ĊĠĠĠĠĠĠĠĠĠĠĠĠĠĠĠĠĠ": 6713,
      "Ġthousands": 6714,
      "END": 6715,
      "Ġcustomers": 6716,
      "ĠGermany": 6717,
      "\\{": 6718,
      "Ġtestified": 6719,
      "Ġtypical": 6720,
      "Ġachieved": 6721,
      "Ġscheme": 6722,
      "otimes": 6723,
      "ĠDel": 6724,
      "ella": 6725,
      "gebra": 6726,
      "ĠUN": 6727,
      "Ġextended": 6728,
      "UG": 6729,
      "iller": 6730,
      "Ġscene": 6731,
      "ributes": 6732,
      "Bar": 6733,
      "Ġeasier": 6734,
      "essor": 6735,
      "Just": 6736,
      "amily": 6737,
      "Ġgreatest": 6738,
      "ĠWH": 6739,
      "Ġliver": 6740,
      "scale": 6741,
      "Ġconcerns": 6742,
      "Ġpept": 6743,
      "adding": 6744,
      "Ġorigin": 6745,
      "Us": 6746,
      "Ġvary": 6747,
      "Ġspend": 6748,
      "Ġhab": 6749,
      "Date": 6750,
      "End": 6751,
      "itative": 6752,
      "Ġhelped": 6753,
      "Ġreceiving": 6754,
      "ĠUp": 6755,
      "Ġunivers": 6756,
      "Ċĉĉĉĉĉ": 6757,
      "aa": 6758,
      "ĠFrench": 6759,
      "Ġ2003": 6760,
      "etilde": 6761,
      "Ġ39": 6762,
      "Stream": 6763,
      "ĠFlor": 6764,
      "300": 6765,
      "Ġcompounds": 6766,
      "widetilde": 6767,
      "Ġfraction": 6768,
      "ĠUsing": 6769,
      "small": 6770,
      "ĠPress": 6771,
      "istory": 6772,
      "std": 6773,
      "Ġsale": 6774,
      "Ġguide": 6775,
      "Pre": 6776,
      "zen": 6777,
      "Ġpowerful": 6778,
      "Ġassessment": 6779,
      "hent": 6780,
      "Ġintervention": 6781,
      "Ġsch": 6782,
      "ĠEU": 6783,
      "Ġamaz": 6784,
      "Ġeventually": 6785,
      "110": 6786,
      "Ġaccident": 6787,
      "rape": 6788,
      "Ġ+=": 6789,
      "legal": 6790,
      "Ġrepresented": 6791,
      "Ġstimul": 6792,
      "Version": 6793,
      "**(-": 6794,
      "FC": 6795,
      "omal": 6796,
      "Ġowner": 6797,
      "Ġsections": 6798,
      "Ġregulation": 6799,
      "real": 6800,
      "oday": 6801,
      "ipped": 6802,
      "bour": 6803,
      "Ġcluster": 6804,
      "standing": 6805,
      "itely": 6806,
      "orthern": 6807,
      "ytic": 6808,
      "Ġsouth": 6809,
      "ivo": 6810,
      "Ġprison": 6811,
      "Ġminim": 6812,
      "Ġspectrum": 6813,
      "cr": 6814,
      "olf": 6815,
      "NN": 6816,
      "Ġmodified": 6817,
      "Ġintent": 6818,
      "sor": 6819,
      "ĠFacebook": 6820,
      "operative": 6821,
      "Ġsubsequent": 6822,
      "uns": 6823,
      "UD": 6824,
      "Ġunderlying": 6825,
      "ĠNa": 6826,
      "_{{\\": 6827,
      "Ġallowing": 6828,
      "Ġoccurs": 6829,
      "})$": 6830,
      "ette": 6831,
      ">(": 6832,
      "Ġdefect": 6833,
      "Ġcrow": 6834,
      "she": 6835,
      "ĠHall": 6836,
      "Ġincident": 6837,
      "AGE": 6838,
      "ĠWil": 6839,
      "006": 6840,
      "Button": 6841,
      "Ġinvestigated": 6842,
      "ÂŃ": 6843,
      "ĠWhere": 6844,
      "ĠScience": 6845,
      "akers": 6846,
      "Ġflat": 6847,
      "has": 6848,
      "Ġfif": 6849,
      "Ġpathway": 6850,
      "fast": 6851,
      "Ġseeing": 6852,
      "âĶ": 6853,
      "Ġmargin": 6854,
      "Ġadults": 6855,
      "PH": 6856,
      "ilty": 6857,
      "Ġacts": 6858,
      "ampions": 6859,
      "Ġwaiting": 6860,
      "RC": 6861,
      "ĠMem": 6862,
      "PRO": 6863,
      "ĠMA": 6864,
      "Ġpert": 6865,
      "ãģ®": 6866,
      "ests": 6867,
      "Ġbath": 6868,
      "Ġmorph": 6869,
      "Ġhol": 6870,
      "bal": 6871,
      "erest": 6872,
      "Ġserum": 6873,
      "Conne": 6874,
      "ĠÃĹ": 6875,
      "ĠTuesday": 6876,
      "ĠMil": 6877,
      "Ġefficiency": 6878,
      "ĠSand": 6879,
      "Ġdetailed": 6880,
      "Ġdelivery": 6881,
      "Ġconstitution": 6882,
      "Ġmo": 6883,
      "okes": 6884,
      "Ġdepending": 6885,
      "ï¼Į": 6886,
      "ĠCT": 6887,
      "Ġstrongly": 6888,
      "otes": 6889,
      "riend": 6890,
      "cles": 6891,
      "Ġconsult": 6892,
      "iant": 6893,
      "Ġfourth": 6894,
      "Ġnetworks": 6895,
      "Ġskills": 6896,
      "Ġextends": 6897,
      "ĠPA": 6898,
      "Ġ};": 6899,
      "Ġpolicies": 6900,
      "ifications": 6901,
      "Ġprefer": 6902,
      "arc": 6903,
      "Ġgly": 6904,
      "Ġstories": 6905,
      "Ġegg": 6906,
      "ĊĠĠĠĠĠĠĠĠĠĠ": 6907,
      "Ġ120": 6908,
      "isted": 6909,
      "Ġexamined": 6910,
      "ubuntu": 6911,
      "Ġdesired": 6912,
      "atson": 6913,
      "estic": 6914,
      "Ġintensity": 6915,
      "Ġdiscrim": 6916,
      "height": 6917,
      "Number": 6918,
      "Ñĥ": 6919,
      "amental": 6920,
      "Ġcris": 6921,
      "lang": 6922,
      "=======": 6923,
      "CK": 6924,
      "\\[[@": 6925,
      "win": 6926,
      "Ġnan": 6927,
      "Ġpossibly": 6928,
      "Ġacknow": 6929,
      "bert": 6930,
      "press": 6931,
      "Ġprices": 6932,
      "Ġbund": 6933,
      "ÂłÂłÂłÂł": 6934,
      "inv": 6935,
      "Ġlisted": 6936,
      "erior": 6937,
      "Ġisolated": 6938,
      "Ġlung": 6939,
      "je": 6940,
      "Ġplays": 6941,
      "Ġconcern": 6942,
      "ĠGoogle": 6943,
      "Ġpurchase": 6944,
      "Ġfans": 6945,
      "Ġrich": 6946,
      "ĠCr": 6947,
      "Ġ44": 6948,
      "Ġconsent": 6949,
      "Ġdatas": 6950,
      "ao": 6951,
      "Ġexpansion": 6952,
      "Ġdimension": 6953,
      "Ġ\"\"\"": 6954,
      "ogene": 6955,
      "mbox": 6956,
      "ĠMac": 6957,
      "ERS": 6958,
      "Ġhelps": 6959,
      "asc": 6960,
      "Ġfreedom": 6961,
      "iot": 6962,
      "yan": 6963,
      "ading": 6964,
      "2012": 6965,
      "OUT": 6966,
      "MI": 6967,
      "ernel": 6968,
      "Ġreplic": 6969,
      "ĠFin": 6970,
      "Ġequations": 6971,
      "ĠCI": 6972,
      "dt": 6973,
      "ostic": 6974,
      "usal": 6975,
      "weight": 6976,
      "čĊĠĠĠĠĠ": 6977,
      "Ġpropos": 6978,
      "useum": 6979,
      "Ġafford": 6980,
      "phone": 6981,
      "cretion": 6982,
      "ted": 6983,
      "endment": 6984,
      "Ġdys": 6985,
      "Ġsupposed": 6986,
      "2014": 6987,
      "Ext": 6988,
      "mid": 6989,
      "Ð»": 6990,
      "Ġapplicable": 6991,
      "Ġgranted": 6992,
      "ĠGold": 6993,
      "dependent": 6994,
      "author": 6995,
      "Ġneither": 6996,
      "Ġscan": 6997,
      "Ġbranch": 6998,
      "Ġlose": 6999,
      "ĠWeb": 7000,
      "Ġfocused": 7001,
      "Since": 7002,
      "Ġconsidering": 7003,
      ")^{": 7004,
      "Ġsqrt": 7005,
      "ructure": 7006,
      "Content": 7007,
      "ĠWork": 7008,
      "Ġ65": 7009,
      "Ġplaintiffs": 7010,
      "Ġuint": 7011,
      "outhern": 7012,
      "Ġfilms": 7013,
      "NT": 7014,
      "ĠNO": 7015,
      "Ġcompare": 7016,
      "2016": 7017,
      "/-": 7018,
      "kl": 7019,
      "Ġordered": 7020,
      "Ġ2002": 7021,
      "ato": 7022,
      "Ġoutcomes": 7023,
      ")[": 7024,
      "first": 7025,
      "Frame": 7026,
      "ulin": 7027,
      "ĠHill": 7028,
      "Ġtele": 7029,
      "Gl": 7030,
      "Ġ2020": 7031,
      "Ġrestrict": 7032,
      "ĠRussia": 7033,
      "ĠGood": 7034,
      "Ġfinished": 7035,
      "Ġfill": 7036,
      "Ġconclude": 7037,
      "Then": 7038,
      "Char": 7039,
      "olecules": 7040,
      "Ġintellig": 7041,
      "âĢĿ,": 7042,
      "ervices": 7043,
      "only": 7044,
      "ĠSE": 7045,
      "venue": 7046,
      "ĠCompany": 7047,
      "bolds": 7048,
      "rated": 7049,
      "ander": 7050,
      "dat": 7051,
      "van": 7052,
      "Ġtwice": 7053,
      "boldsymbol": 7054,
      "Ġ[]": 7055,
      "Ġviolence": 7056,
      "Ġconfidence": 7057,
      "roke": 7058,
      "Ġcomplaint": 7059,
      "Ġ55": 7060,
      "Ġemph": 7061,
      "UE": 7062,
      "ih": 7063,
      "minimal": 7064,
      "Ġlimitations": 7065,
      "mo": 7066,
      "Ġphenomen": 7067,
      "FO": 7068,
      "Ġrelief": 7069,
      "break": 7070,
      "ĠSam": 7071,
      "Ġframework": 7072,
      "Ġinterval": 7073,
      "Ġlab": 7074,
      "Ġ${": 7075,
      "Ġapproaches": 7076,
      "iples": 7077,
      "ĠJapanese": 7078,
      "Ġfol": 7079,
      "vo": 7080,
      "ipher": 7081,
      "ateral": 7082,
      "ĠChe": 7083,
      "Ġheter": 7084,
      "endif": 7085,
      "Ġaccum": 7086,
      "Ġmel": 7087,
      "2000": 7088,
      "Ġiron": 7089,
      "enu": 7090,
      "Ġresource": 7091,
      "Ġassuming": 7092,
      "Ġversus": 7093,
      "Ġanalog": 7094,
      "law": 7095,
      "Ġobservations": 7096,
      "--------------------------------------------------------------------------------------------------------------------------------": 7097,
      "message": 7098,
      "Ġreligious": 7099,
      "levision": 7100,
      "Ġincub": 7101,
      "Ġvirtual": 7102,
      "Ġorient": 7103,
      "ĠForm": 7104,
      "Ġban": 7105,
      "Ġjournal": 7106,
      "~~~~": 7107,
      "Ġbaby": 7108,
      "comple": 7109,
      "ĠSD": 7110,
      "ĠBer": 7111,
      "Ġdeliver": 7112,
      "Ġcategory": 7113,
      "2011": 7114,
      "IEq": 7115,
      "Ġrevers": 7116,
      "inton": 7117,
      "option": 7118,
      "mathsf": 7119,
      "Look": 7120,
      "Ġmeasurement": 7121,
      "ĠAlex": 7122,
      "Ġstanding": 7123,
      "rog": 7124,
      "Simplify": 7125,
      "ĠFlorida": 7126,
      "plant": 7127,
      "ometric": 7128,
      "Ġadequ": 7129,
      "fold": 7130,
      "INE": 7131,
      "ĠSN": 7132,
      "odds": 7133,
      "ĠFree": 7134,
      "Ġconcerned": 7135,
      "missions": 7136,
      "ĠParty": 7137,
      "documentclass": 7138,
      "ĠOpen": 7139,
      "pol": 7140,
      "activ": 7141,
      "ĠAssociation": 7142,
      "jud": 7143,
      "prime": 7144,
      "Ġsettings": 7145,
      "Ġsignaling": 7146,
      "Ġinsp": 7147,
      "hr": 7148,
      "raq": 7149,
      "rawn": 7150,
      "Ġ:)": 7151,
      "Ġasking": 7152,
      "ĠJava": 7153,
      "Ġcitizens": 7154,
      "./": 7155,
      "ocytes": 7156,
      "Ġdetermination": 7157,
      "400": 7158,
      "Ġscores": 7159,
      "Ġresulted": 7160,
      "Ġveloc": 7161,
      "Ġ46": 7162,
      "Ġadvance": 7163,
      "Ġrent": 7164,
      "perties": 7165,
      "Ġformal": 7166,
      "Ġpayment": 7167,
      "aid": 7168,
      "Ġmes": 7169,
      "ĉĉĉĉ": 7170,
      "}=\\": 7171,
      "IST": 7172,
      "request": 7173,
      "Ġestate": 7174,
      "fonts": 7175,
      "Ġjurisdiction": 7176,
      "GB": 7177,
      "ĠTom": 7178,
      "oded": 7179,
      "}\\\\": 7180,
      "Ġ41": 7181,
      "possible": 7182,
      "ector": 7183,
      "Ġaccord": 7184,
      "CM": 7185,
      "ĠCL": 7186,
      "ĠSun": 7187,
      "clusive": 7188,
      "velopment": 7189,
      "ias": 7190,
      "Ġbelieved": 7191,
      "Ġmission": 7192,
      "Ġrecip": 7193,
      "Ġcapable": 7194,
      "udd": 7195,
      "Instance": 7196,
      "rine": 7197,
      "onna": 7198,
      "Ġveget": 7199,
      "Ġinfo": 7200,
      "Ġpreval": 7201,
      "Ġplot": 7202,
      "Ġcogn": 7203,
      "âĢ©": 7204,
      "ĠWednesday": 7205,
      "server": 7206,
      "Ġenhance": 7207,
      "clusions": 7208,
      "Ġpharm": 7209,
      "Manager": 7210,
      "Ġalter": 7211,
      "alty": 7212,
      "ĠRiver": 7213,
      "Ġtag": 7214,
      "ĠCopyright": 7215,
      "Ġpersons": 7216,
      "Result": 7217,
      "Ġplanning": 7218,
      "Ġadvice": 7219,
      "Ġemployed": 7220,
      "Ġstored": 7221,
      "Ġdemonstrate": 7222,
      "Ġchallenges": 7223,
      "Ġinvolving": 7224,
      "Ġannual": 7225,
      "More": 7226,
      "Ġ49": 7227,
      "gener": 7228,
      "Ġfont": 7229,
      "Ġboundary": 7230,
      "dep": 7231,
      "lections": 7232,
      "utely": 7233,
      "nav": 7234,
      "Ġexperienced": 7235,
      "Ġsugar": 7236,
      "Ġspl": 7237,
      "ellular": 7238,
      "ĠPen": 7239,
      "Ġentitled": 7240,
      "Check": 7241,
      "Ġhousing": 7242,
      "Ġaccuracy": 7243,
      "ĠLeg": 7244,
      "Ġenforce": 7245,
      "Ġspat": 7246,
      "ĠRepublican": 7247,
      "gical": 7248,
      "Ġshock": 7249,
      "Ġcontinues": 7250,
      "ĠCP": 7251,
      "ĠField": 7252,
      "Ġdocuments": 7253,
      "itud": 7254,
      "stood": 7255,
      "Ġsam": 7256,
      "Ġstatistical": 7257,
      "Ĥ¬": 7258,
      "Ġforth": 7259,
      "Controller": 7260,
      "Ġevaluate": 7261,
      "SL": 7262,
      "tex": 7263,
      "2010": 7264,
      "Ġauthorities": 7265,
      "]--": 7266,
      "ĠJohnson": 7267,
      "imately": 7268,
      "\"}.": 7269,
      "ä»": 7270,
      "Ġduty": 7271,
      "orted": 7272,
      "Ġmarked": 7273,
      "Ġoffense": 7274,
      "wed": 7275,
      "ĠBrown": 7276,
      "ĠThursday": 7277,
      "Ġrelationships": 7278,
      "Ġends": 7279,
      "eding": 7280,
      "BO": 7281,
      "Ġpal": 7282,
      "Rem": 7283,
      "mt": 7284,
      "Ġclust": 7285,
      "Override": 7286,
      "otherapy": 7287,
      "Ġcort": 7288,
      "ashed": 7289,
      "2013": 7290,
      "Ġdynamics": 7291,
      "Ġexposed": 7292,
      "Ġimplies": 7293,
      "charge": 7294,
      "Ġdestroy": 7295,
      "Ġguilty": 7296,
      "Ġideal": 7297,
      "Ġpaint": 7298,
      "osh": 7299,
      "Ġforced": 7300,
      "Ġrats": 7301,
      "Ġadvert": 7302,
      "Ġcontribution": 7303,
      "*/": 7304,
      "Ġmainly": 7305,
      "Ġhence": 7306,
      "ĠAngel": 7307,
      "ysym": 7308,
      "Ġmuscle": 7309,
      "Ġlicense": 7310,
      "Ġprotest": 7311,
      "Ġdirected": 7312,
      "Ġburden": 7313,
      "ĠWindows": 7314,
      "Ġsensitivity": 7315,
      "Ġdefic": 7316,
      "ushed": 7317,
      "ĠÃł": 7318,
      "Ġwilling": 7319,
      "Ġdomin": 7320,
      "FS": 7321,
      "img": 7322,
      "ĠRef": 7323,
      "Ġdiscovered": 7324,
      "Ġmilk": 7325,
      "event": 7326,
      "---|---|": 7327,
      "Ġinvestigate": 7328,
      "setlength": 7329,
      "cuss": 7330,
      "etime": 7331,
      "ftware": 7332,
      "status": 7333,
      "Ġadministr": 7334,
      "**]{}": 7335,
      "ĠCE": 7336,
      "ĠEngland": 7337,
      "Point": 7338,
      "TO": 7339,
      "ĠObject": 7340,
      "Ġbatter": 7341,
      "umns": 7342,
      "ĠNE": 7343,
      "json": 7344,
      "Ġalign": 7345,
      "Ġworse": 7346,
      "Ġoccasion": 7347,
      "Ġabsolute": 7348,
      "Ġpoll": 7349,
      "Ġice": 7350,
      "ĠSO": 7351,
      "Ġrough": 7352,
      "Ġtrip": 7353,
      "hydro": 7354,
      "Ġsides": 7355,
      "}{-": 7356,
      "Ġmixture": 7357,
      "Ġsan": 7358,
      "Go": 7359,
      "âĢĶâĢĶ": 7360,
      "client": 7361,
      "Ġsole": 7362,
      "Ġconflict": 7363,
      "'.": 7364,
      "Ġdigit": 7365,
      "ĠInformation": 7366,
      "Ġnav": 7367,
      "Ġinteract": 7368,
      "%.": 7369,
      "Ġprincipal": 7370,
      "........": 7371,
      "Ġchief": 7372,
      "Ġlimits": 7373,
      "Ġdecide": 7374,
      "Ġreplace": 7375,
      "ĠMS": 7376,
      "Ġ{{\\": 7377,
      "Ġscope": 7378,
      "Ġaxis": 7379,
      "Ġemployee": 7380,
      "Ġ47": 7381,
      "upg": 7382,
      "iral": 7383,
      "Ġhumans": 7384,
      "2017": 7385,
      "android": 7386,
      "Ġassembly": 7387,
      "Ġpossess": 7388,
      "asy": 7389,
      "Ġunknown": 7390,
      "Ġremained": 7391,
      "annels": 7392,
      "ĠSing": 7393,
      "Last": 7394,
      "Ġoblig": 7395,
      "Ġconscious": 7396,
      "Ġspaces": 7397,
      "Ġkeeping": 7398,
      "Ġassessed": 7399,
      "Ġvoltage": 7400,
      "Ġcart": 7401,
      "ĠSum": 7402,
      "ĠFederal": 7403,
      "Ġpotentially": 7404,
      "ND": 7405,
      "ĠDec": 7406,
      "Ġseconds": 7407,
      "]--[@": 7408,
      "Ġdamages": 7409,
      "Action": 7410,
      "output": 7411,
      "amsmath": 7412,
      "ĠLou": 7413,
      "oration": 7414,
      "Ġsynd": 7415,
      "icken": 7416,
      "Ġtrials": 7417,
      "Are": 7418,
      "seud": 7419,
      "uls": 7420,
      "gent": 7421,
      "Ġcash": 7422,
      "cat": 7423,
      "oster": 7424,
      "Ġfrequently": 7425,
      "Ġbiological": 7426,
      "ĠIraq": 7427,
      "bsy": 7428,
      "Ġuncertain": 7429,
      "Ġelectronic": 7430,
      "Ġcamera": 7431,
      "Ġtruly": 7432,
      "Ġfees": 7433,
      "Ġsubstrate": 7434,
      "Ġfundamental": 7435,
      "target": 7436,
      "amss": 7437,
      "ĠLike": 7438,
      "ĠPhil": 7439,
      "ĠPlease": 7440,
      "Ġarchitect": 7441,
      "Ġinformed": 7442,
      "idemargin": 7443,
      "oddsidemargin": 7444,
      "amsfonts": 7445,
      "amsbsy": 7446,
      "amssymb": 7447,
      "mathrs": 7448,
      "Ġargues": 7449,
      "ĠCircuit": 7450,
      "ĠRobert": 7451,
      "mathrsfs": 7452,
      "wasysym": 7453,
      "upgreek": 7454,
      "Ùİ": 7455,
      "antic": 7456,
      "ĠStr": 7457,
      "ĠOffice": 7458,
      "Ġfav": 7459,
      "Ġbright": 7460,
      "etch": 7461,
      "ĠWhe": 7462,
      "appe": 7463,
      "dec": 7464,
      "ĠBur": 7465,
      "irty": 7466,
      "Ġwaste": 7467,
      "Ġprovision": 7468,
      "Head": 7469,
      "Ġexplan": 7470,
      "Ġped": 7471,
      "ĠStat": 7472,
      "ĠSaturday": 7473,
      "ĠJustice": 7474,
      "Fe": 7475,
      "Ġimprovement": 7476,
      "ressive": 7477,
      "Ġrelates": 7478,
      "Your": 7479,
      "ĠSecret": 7480,
      "Ġapart": 7481,
      "Ġbroken": 7482,
      "Ġentirely": 7483,
      "Ġstrict": 7484,
      "Ġadvanced": 7485,
      "ÃĹÂĻ": 7486,
      "ĠCS": 7487,
      "ontal": 7488,
      "Ġdoctor": 7489,
      "Ġhoriz": 7490,
      "ĠGovernment": 7491,
      "itable": 7492,
      "Ġoxid": 7493,
      ":\\": 7494,
      "Ġbeat": 7495,
      "Ġ300": 7496,
      "Ġlaunch": 7497,
      "Ġju": 7498,
      "ployment": 7499,
      "Ġton": 7500,
      "Ġnine": 7501,
      "Ġstopped": 7502,
      "GE": 7503,
      "Ġion": 7504,
      "ola": 7505,
      "ifferent": 7506,
      "ĠHence": 7507,
      "Ġbecoming": 7508,
      "Ġnotes": 7509,
      "ĠLog": 7510,
      "ĠGa": 7511,
      "enance": 7512,
      "ĠPC": 7513,
      "Ġenable": 7514,
      "mg": 7515,
      "Ġcourts": 7516,
      "Ġaspects": 7517,
      "Ġimaging": 7518,
      "Ġ43": 7519,
      "Ġ&=": 7520,
      "Ġlinked": 7521,
      "Ġnumerous": 7522,
      "rot": 7523,
      "ĠAR": 7524,
      "Ġfilled": 7525,
      "ione": 7526,
      "Ġjump": 7527,
      "ko": 7528,
      "Ġmir": 7529,
      "Ġfluores": 7530,
      "omer": 7531,
      "acle": 7532,
      "Ġthereby": 7533,
      "ĠAnn": 7534,
      "Ġduration": 7535,
      "ĠLin": 7536,
      "Ġcritic": 7537,
      "Ġdegrees": 7538,
      "ws": 7539,
      "Ġens": 7540,
      "Ġnodes": 7541,
      "ĠIII": 7542,
      "Ġoffering": 7543,
      "apped": 7544,
      "Solve": 7545,
      "dden": 7546,
      "usiness": 7547,
      "Ġindepend": 7548,
      "============": 7549,
      "Load": 7550,
      "Ġbinary": 7551,
      "Ġalt": 7552,
      "apers": 7553,
      "Ġlen": 7554,
      "Ġconven": 7555,
      "Ġassigned": 7556,
      "Ġmand": 7557,
      "osa": 7558,
      "grade": 7559,
      "riter": 7560,
      "Ġamounts": 7561,
      "Ġreverse": 7562,
      "SON": 7563,
      "Rel": 7564,
      "dule": 7565,
      "ifies": 7566,
      "Ġbio": 7567,
      "Ġcorre": 7568,
      "ĠĊĠĠĠ": 7569,
      "Ġconj": 7570,
      "ĠRule": 7571,
      "icago": 7572,
      "Ġemployment": 7573,
      "ĠControl": 7574,
      "Ġinterpretation": 7575,
      "Ġarbitr": 7576,
      "png": 7577,
      "Ġfan": 7578,
      "Ġdispl": 7579,
      "Ġsupporting": 7580,
      "\\\"": 7581,
      "ashion": 7582,
      "Ġgluc": 7583,
      "Ġconsumption": 7584,
      "Br": 7585,
      "2018": 7586,
      "^+^": 7587,
      "Ġdistingu": 7588,
      "Vert": 7589,
      "Ġcontribute": 7590,
      "Ġrooms": 7591,
      "2009": 7592,
      "åĪ": 7593,
      "ilton": 7594,
      "ĠSenate": 7595,
      "Â¶": 7596,
      "rogen": 7597,
      "Ġspending": 7598,
      "Ġmotiv": 7599,
      "iary": 7600,
      "ears": 7601,
      "Ġsigns": 7602,
      "Ġdepression": 7603,
      "Ġclaimed": 7604,
      "Ġresponsibility": 7605,
      "iliar": 7606,
      "Ġdil": 7607,
      "ĠOS": 7608,
      "args": 7609,
      "References": 7610,
      "ĠSimilar": 7611,
      "Ġsuitable": 7612,
      "Ġje": 7613,
      "Start": 7614,
      "Te": 7615,
      "čĊĠĠĠĠĠĠĠĠĠĠĠ": 7616,
      "Ġconference": 7617,
      "Ġroute": 7618,
      "rer": 7619,
      "ĠAppe": 7620,
      "Ġtight": 7621,
      "istor": 7622,
      "ĠSant": 7623,
      "ĠProgram": 7624,
      "NF": 7625,
      "ĠTheir": 7626,
      "Handler": 7627,
      "VE": 7628,
      "aked": 7629,
      "Ġattacks": 7630,
      "Ġnecessarily": 7631,
      "roduction": 7632,
      "Ġindicating": 7633,
      "Ġrecommended": 7634,
      "Note": 7635,
      "append": 7636,
      "Ġstarts": 7637,
      "æľ": 7638,
      "rency": 7639,
      "ÃĹÂķ": 7640,
      "HS": 7641,
      "ĠVol": 7642,
      "Ġkitchen": 7643,
      "Ġfruit": 7644,
      "duction": 7645,
      "ĠCentral": 7646,
      "Ġnarrow": 7647,
      "Create": 7648,
      "Ġappearance": 7649,
      "Ġvitro": 7650,
      "sd": 7651,
      "ochem": 7652,
      "Ġfloat": 7653,
      "Ġdefinitely": 7654,
      "ĠIslam": 7655,
      "$)": 7656,
      "*^": 7657,
      "eger": 7658,
      "Ġstability": 7659,
      "ĠMinister": 7660,
      "Filter": 7661,
      "Ġmanaged": 7662,
      "Tem": 7663,
      "cut": 7664,
      "Ġphilos": 7665,
      "Ġvariation": 7666,
      "Ġfab": 7667,
      "ĠFile": 7668,
      "Ġstick": 7669,
      "Ġinstalled": 7670,
      "\"})": 7671,
      "Ġjour": 7672,
      "Ġthreshold": 7673,
      "ĠVir": 7674,
      "number": 7675,
      "Ġstack": 7676,
      "ĠOnly": 7677,
      "ĠScott": 7678,
      "mL": 7679,
      "Ġboot": 7680,
      "Ġmicrosc": 7681,
      "[\"": 7682,
      "life": 7683,
      "Ġgap": 7684,
      "ORT": 7685,
      "sect": 7686,
      "iological": 7687,
      "pg": 7688,
      "ĠDiv": 7689,
      "Ġcommonly": 7690,
      "Ġidentification": 7691,
      "arks": 7692,
      "Ġeffectively": 7693,
      "Ġsmallest": 7694,
      "rehens": 7695,
      "ĠTur": 7696,
      "Ġsudden": 7697,
      "Ġdepth": 7698,
      "Americ": 7699,
      "rypt": 7700,
      "IO": 7701,
      "Ġ56": 7702,
      "Ġparallel": 7703,
      "000000": 7704,
      "GG": 7705,
      "ĠMex": 7706,
      "Ġpartial": 7707,
      "ician": 7708,
      "Ġtemplate": 7709,
      "DB": 7710,
      "Ġexperiences": 7711,
      "ĠRussian": 7712,
      "antly": 7713,
      "iverse": 7714,
      "yg": 7715,
      "Ġran": 7716,
      "Ġantibody": 7717,
      "Ġsuggesting": 7718,
      "ĠGive": 7719,
      "scrib": 7720,
      "buntu": 7721,
      "ju": 7722,
      "Ġ150": 7723,
      "ERR": 7724,
      "Ġbrand": 7725,
      "_.": 7726,
      "Ġfell": 7727,
      "agen": 7728,
      "Ġattached": 7729,
      "ĠÃ©": 7730,
      "pet": 7731,
      "orters": 7732,
      "ĠMath": 7733,
      "ivered": 7734,
      "Default": 7735,
      "DC": 7736,
      "rey": 7737,
      "oder": 7738,
      "Ġdependent": 7739,
      "Ġsea": 7740,
      "ĠANY": 7741,
      "product": 7742,
      "Ġstret": 7743,
      "Ġshell": 7744,
      "150": 7745,
      "ogenic": 7746,
      "Ġrecognized": 7747,
      "gression": 7748,
      "ERE": 7749,
      "Ġtranscription": 7750,
      "month": 7751,
      "Pat": 7752,
      "Ġacute": 7753,
      "Ġobjective": 7754,
      "Ge": 7755,
      "Ġestimates": 7756,
      "method": 7757,
      "}},": 7758,
      "Ġmurder": 7759,
      "Ġunable": 7760,
      "adata": 7761,
      "(\\[": 7762,
      "mas": 7763,
      "Ġvess": 7764,
      "Ġul": 7765,
      "Ġsuppl": 7766,
      "Ġinstructions": 7767,
      "utic": 7768,
      "Ġdepartment": 7769,
      "Select": 7770,
      "Ġsin": 7771,
      "otted": 7772,
      "ĠTime": 7773,
      "ĠRob": 7774,
      "Ġresidents": 7775,
      "Ġaccompl": 7776,
      "Post": 7777,
      "**,": 7778,
      "Ġcommunities": 7779,
      "Ġcalc": 7780,
      "Ġtechnical": 7781,
      "ãģĹ": 7782,
      "ura": 7783,
      "Ġsched": 7784,
      "Ġopposite": 7785,
      "Ġpractices": 7786,
      "Det": 7787,
      "Ġconcluded": 7788,
      "Which": 7789,
      "May": 7790,
      "claim": 7791,
      "Ġsubset": 7792,
      "ĠOnce": 7793,
      "Ġmassive": 7794,
      "Ġaccepted": 7795,
      "rie": 7796,
      "Two": 7797,
      "uint": 7798,
      "ĠNor": 7799,
      "herent": 7800,
      "ĠFIG": 7801,
      "ĠUse": 7802,
      "Ġstrain": 7803,
      "tab": 7804,
      "ĠMer": 7805,
      "ĠDefendant": 7806,
      "Ġlived": 7807,
      "next": 7808,
      "jw": 7809,
      "ĠGeorge": 7810,
      "Ġweekend": 7811,
      "ABLE": 7812,
      "Â·": 7813,
      "Ġgirls": 7814,
      "Ġlegisl": 7815,
      "FP": 7816,
      "Ġnit": 7817,
      "Ġprolif": 7818,
      "ĠMcC": 7819,
      "Ġship": 7820,
      "Ġpieces": 7821,
      "cf": 7822,
      "ells": 7823,
      "Ġcandidates": 7824,
      "Ret": 7825,
      "tw": 7826,
      "zeta": 7827,
      "Ġbag": 7828,
      "ĠCap": 7829,
      "Ġcoh": 7830,
      "Ġfacilit": 7831,
      "xygen": 7832,
      "ĠDen": 7833,
      "Ġconsideration": 7834,
      "edia": 7835,
      "omial": 7836,
      "Ġpin": 7837,
      "else": 7838,
      "Ġscal": 7839,
      "Ġcorrespond": 7840,
      "icious": 7841,
      "aven": 7842,
      ")]": 7843,
      "Base": 7844,
      "Ġsegment": 7845,
      "Ġwidely": 7846,
      "Ġamb": 7847,
      "Ġgrav": 7848,
      "uscript": 7849,
      "Ġurl": 7850,
      "Ġsought": 7851,
      "Ġrender": 7852,
      "Ġstructural": 7853,
      "Ġmessages": 7854,
      "Ġsmart": 7855,
      "Ġusual": 7856,
      "exec": 7857,
      "Ġcoach": 7858,
      "Ġsecure": 7859,
      "Ġsensor": 7860,
      "Hel": 7861,
      "Ġmouth": 7862,
      "Ġdelet": 7863,
      "Ġrational": 7864,
      "Ġcoffe": 7865,
      "ami": 7866,
      "ords": 7867,
      "igr": 7868,
      "ĠIts": 7869,
      "BP": 7870,
      "Ġcompound": 7871,
      "Ġlic": 7872,
      "ĠSU": 7873,
      "ĠInternet": 7874,
      "fit": 7875,
      "Ġaccurate": 7876,
      "Ġwine": 7877,
      "})\\": 7878,
      "SU": 7879,
      "ĠWITH": 7880,
      "RP": 7881,
      "ĠĊĠ": 7882,
      "Ġsupplement": 7883,
      "TA": 7884,
      "Ġoptimal": 7885,
      "align": 7886,
      "ĠWAR": 7887,
      "Ġsensitive": 7888,
      "ĠLemma": 7889,
      "ĠQue": 7890,
      "Ġbaseline": 7891,
      "ĠPlan": 7892,
      "Ġrepresentative": 7893,
      "CIT": 7894,
      "La": 7895,
      "Ġunderstood": 7896,
      "Ġlie": 7897,
      "Ġsweet": 7898,
      "anda": 7899,
      "Ġended": 7900,
      "Ġ51": 7901,
      "achment": 7902,
      "ools": 7903,
      "Ġamino": 7904,
      "Ġexpensive": 7905,
      "Status": 7906,
      "ROM": 7907,
      "ipping": 7908,
      "Ġacadem": 7909,
      "Ġassistance": 7910,
      "ĠChild": 7911,
      "Ġnom": 7912,
      "ĠMag": 7913,
      "Ġ[[": 7914,
      "Ġsuccessfully": 7915,
      "rl": 7916,
      "Ġdisk": 7917,
      "Ġrequirement": 7918,
      "Ġfigures": 7919,
      "find": 7920,
      "ymmet": 7921,
      "ĠInstead": 7922,
      "Please": 7923,
      "Ġminute": 7924,
      "Ġsoil": 7925,
      "Ġcausing": 7926,
      "Ġvisible": 7927,
      "oral": 7928,
      "Ġcommission": 7929,
      "Factory": 7930,
      "ĠGreat": 7931,
      "ensed": 7932,
      "king": 7933,
      "ello": 7934,
      "Ġresearchers": 7935,
      "Ġcities": 7936,
      "context": 7937,
      "ĠMedic": 7938,
      "ĠEX": 7939,
      "}}{\\": 7940,
      "Ġbehaviour": 7941,
      "uum": 7942,
      "Ġexplore": 7943,
      "Ġfavorite": 7944,
      "lements": 7945,
      "AY": 7946,
      "inite": 7947,
      "bound": 7948,
      "arsh": 7949,
      "Ġapopt": 7950,
      "Ġfacilities": 7951,
      "Ġorders": 7952,
      "ita": 7953,
      "creen": 7954,
      "Ġcorner": 7955,
      "adow": 7956,
      "Response": 7957,
      "Ġworry": 7958,
      "Ġarticles": 7959,
      "DNA": 7960,
      "ĠIP": 7961,
      "ĠFed": 7962,
      "Ġcellular": 7963,
      "pitti": 7964,
      "Ġdistribut": 7965,
      "Ġoperators": 7966,
      "opath": 7967,
      "water": 7968,
      "Ġexceed": 7969,
      "wer": 7970,
      "ollowing": 7971,
      "ĠIndeed": 7972,
      "Ġmenu": 7973,
      "dist": 7974,
      "ĠEnd": 7975,
      "Ġmail": 7976,
      "256": 7977,
      "ĠTor": 7978,
      "entry": 7979,
      "ĠPCR": 7980,
      "Ġturns": 7981,
      "ĠDemocratic": 7982,
      "module": 7983,
      "Ġstrategies": 7984,
      "ĠAfrica": 7985,
      "Mode": 7986,
      "wing": 7987,
      "Ġsupports": 7988,
      "Ġluck": 7989,
      "Ġunion": 7990,
      "ancis": 7991,
      "Ġbattle": 7992,
      "Ġoffset": 7993,
      "brid": 7994,
      "Ġdirectory": 7995,
      "ested": 7996,
      "Ġmonitoring": 7997,
      "pad": 7998,
      "Ġ101": 7999,
      "Ġmarried": 8000,
      "LD": 8001,
      "equiv": 8002,
      "Pol": 8003,
      "agger": 8004,
      "ACK": 8005,
      "Ġcm": 8006,
      "ĠPH": 8007,
      "widehat": 8008,
      "').": 8009,
      "ipt": 8010,
      "eli": 8011,
      "Ġsimpl": 8012,
      "GA": 8013,
      "mes": 8014,
      "Ġforget": 8015,
      "Ġcharacterized": 8016,
      "Ġdynamic": 8017,
      "MC": 8018,
      "Ġtoler": 8019,
      "rip": 8020,
      "ye": 8021,
      "Ġsac": 8022,
      "afe": 8023,
      "Ġembed": 8024,
      "Ġseeking": 8025,
      "Ġamazing": 8026,
      "Ġpages": 8027,
      "road": 8028,
      "ĠMethod": 8029,
      "ĠSH": 8030,
      "Ġdecades": 8031,
      "ĠTwitter": 8032,
      "Ġbind": 8033,
      "effect": 8034,
      "TT": 8035,
      "ĠÂ£": 8036,
      "attice": 8037,
      "ĠGerman": 8038,
      "ASE": 8039,
      "\\]).": 8040,
      "ĠMass": 8041,
      "Ġneglig": 8042,
      "ĠCarol": 8043,
      "Ġlawy": 8044,
      "Page": 8045,
      "ĠFrank": 8046,
      "Ġsenior": 8047,
      "Ġ52": 8048,
      "Ġarter": 8049,
      "Ġemission": 8050,
      "Ġviolation": 8051,
      "cup": 8052,
      "Ġconsole": 8053,
      "Ġprinciple": 8054,
      "ĠGal": 8055,
      "Ġregister": 8056,
      "\\^": 8057,
      "Ġsplit": 8058,
      "ĠPut": 8059,
      "never": 8060,
      "ĠArab": 8061,
      "google": 8062,
      "push": 8063,
      "Ġtrees": 8064,
      "EXT": 8065,
      "-(": 8066,
      "UI": 8067,
      "ĠTimes": 8068,
      "Ġmanuscript": 8069,
      "oxid": 8070,
      "Ġsand": 8071,
      "&=": 8072,
      "Task": 8073,
      "Ġdifferential": 8074,
      "Ġpursu": 8075,
      "Ut": 8076,
      "iability": 8077,
      "Ġadmitted": 8078,
      "ĠClinton": 8079,
      "ĠHospital": 8080,
      "Control": 8081,
      "Ġsitting": 8082,
      "Ġdisput": 8083,
      "Ġphoto": 8084,
      "Ġtrouble": 8085,
      "ĠĠĠĠĠĠĠĠĠĠĠĠĠĠĠĠĠĠĠĠĠĠĠĠĠĠĠĠĠĠĠĠĠĠĠĠĠĠĠĠĠĠĠĠĠĠĠĠĠĠĠĠĠĠĠĠĠĠĠĠĠĠĠĠĠĠĠĠĠĠĠĠĠĠĠĠĠĠĠĠĠĠĠĠĠĠĠĠĠĠĠĠĠĠĠĠ": 8086,
      "Ne": 8087,
      "ĠHel": 8088,
      "menu": 8089,
      "Ġimpossible": 8090,
      "FIG": 8091,
      "Ġouter": 8092,
      "ĠGO": 8093,
      "Ġoverl": 8094,
      "project": 8095,
      "OK": 8096,
      "Ġdollars": 8097,
      "kins": 8098,
      "Ġreducing": 8099,
      "Ġcoffee": 8100,
      "molecules": 8101,
      "Ġreson": 8102,
      "Ġcolon": 8103,
      "Ġcrisis": 8104,
      "prote": 8105,
      "ĠAnother": 8106,
      "Ġcontributions": 8107,
      "otten": 8108,
      "ether": 8109,
      "ocy": 8110,
      "Ġlowest": 8111,
      "Where": 8112,
      "Ġmaps": 8113,
      "Ġpromote": 8114,
      "uled": 8115,
      "Ġorganic": 8116,
      "??": 8117,
      "Spec": 8118,
      "imb": 8119,
      "Ġtelevision": 8120,
      "Ġknock": 8121,
      "Ġdisorder": 8122,
      "Ġattend": 8123,
      "Ġclosest": 8124,
      "helial": 8125,
      "Ġwear": 8126,
      "Ġautomatically": 8127,
      "ani": 8128,
      "Ġscr": 8129,
      "Ġputting": 8130,
      "Ġpropag": 8131,
      "Ġpairs": 8132,
      "Ġgalax": 8133,
      "Ġtasks": 8134,
      "Ġecho": 8135,
      "Ġarms": 8136,
      "Ġlargely": 8137,
      "Ġconcerning": 8138,
      "odium": 8139,
      "Ġeditor": 8140,
      "Ġimplemented": 8141,
      "ĠLong": 8142,
      "Ġjustice": 8143,
      "ĠBill": 8144,
      "Ġmanifest": 8145,
      "\"),": 8146,
      "Ġtor": 8147,
      "Ġhomes": 8148,
      "NU": 8149,
      "uh": 8150,
      "common": 8151,
      "then": 8152,
      "Ġintention": 8153,
      "Ġdiscretion": 8154,
      "Phys": 8155,
      "ĠDev": 8156,
      "Ġintra": 8157,
      "ĠIsland": 8158,
      "Ġforg": 8159,
      "ãĢģ": 8160,
      "step": 8161,
      "Ġleague": 8162,
      "ket": 8163,
      "lines": 8164,
      "ĠFrance": 8165,
      "ÙĦ": 8166,
      "aped": 8167,
      "Ġacting": 8168,
      "Ġabsor": 8169,
      "Ġpassing": 8170,
      "Ġposted": 8171,
      "Ġ54": 8172,
      "ĠVis": 8173,
      "aws": 8174,
      "Ġrelax": 8175,
      "eler": 8176,
      "Current": 8177,
      "Ġthin": 8178,
      "Off": 8179,
      "ĠBE": 8180,
      "ĠFood": 8181,
      "Ġplastic": 8182,
      "Ġjoined": 8183,
      "andon": 8184,
      "deg": 8185,
      "ĠEduc": 8186,
      "ĠON": 8187,
      "ounter": 8188,
      "]^.": 8189,
      "igan": 8190,
      "ĠJones": 8191,
      "Ġnegot": 8192,
      "Dec": 8193,
      "Ġwarn": 8194,
      "Ġevening": 8195,
      "Ġesc": 8196,
      "Another": 8197,
      "Ġreform": 8198,
      "ĠExt": 8199,
      "CTION": 8200,
      "Ġcontroller": 8201,
      "Vis": 8202,
      "Ġtom": 8203,
      "ĠThomas": 8204,
      "Ġmiles": 8205,
      ".-": 8206,
      "Ġdepos": 8207,
      "Ġdangerous": 8208,
      "Ġbone": 8209,
      "Ġwalking": 8210,
      "ĠProject": 8211,
      "Ġinvolves": 8212,
      "Ġvelocity": 8213,
      "ĠmRNA": 8214,
      "Ġhole": 8215,
      "ĠStand": 8216,
      "Arg": 8217,
      "Ġobservation": 8218,
      "Ġradiation": 8219,
      "Ġinhibition": 8220,
      "sign": 8221,
      "Ġgate": 8222,
      "Next": 8223,
      "lik": 8224,
      "âĢĭ": 8225,
      "prop": 8226,
      "Ġgonna": 8227,
      "ophy": 8228,
      "ĠProf": 8229,
      "008": 8230,
      "Ġ72": 8231,
      "Ġlots": 8232,
      "erves": 8233,
      "Ġgenome": 8234,
      "Ġstrains": 8235,
      "options": 8236,
      "Ġcompetition": 8237,
      "Ġvision": 8238,
      "Ġdelivered": 8239,
      "ĠBig": 8240,
      "Ġperspective": 8241,
      "Ġtargets": 8242,
      "ena": 8243,
      "ĊĠĠĠĠĠĠĠĠĠĠĠĠĠĠĠĠĠĠĠĠĠĠĠĠĠĠĠĠĠĠĠ": 8244,
      "Ġdepart": 8245,
      "Ġemergency": 8246,
      "high": 8247,
      "Ġoxygen": 8248,
      "Ġwatching": 8249,
      "Ġcoupling": 8250,
      "ãģĻ": 8251,
      "Ġenem": 8252,
      "Ġcos": 8253,
      "Format": 8254,
      "Ġperman": 8255,
      "Ġxml": 8256,
      "ä½": 8257,
      "Ġperm": 8258,
      "ĠSoftware": 8259,
      "Ã¤": 8260,
      "Ġ84": 8261,
      "ĠChicago": 8262,
      "Ġpolymer": 8263,
      "VA": 8264,
      "Ġol": 8265,
      "Ġminimal": 8266,
      "Ġmolecules": 8267,
      "Ġmortality": 8268,
      "010": 8269,
      "125": 8270,
      "Ġsubt": 8271,
      ">,": 8272,
      "jwatson": 8273,
      "Am": 8274,
      "Ġ&\\": 8275,
      "Ġzone": 8276,
      "fill": 8277,
      "amber": 8278,
      "ĠUs": 8279,
      "Ġdetermining": 8280,
      "Ġsalt": 8281,
      "çĶ": 8282,
      "Thanks": 8283,
      "show": 8284,
      "adian": 8285,
      "Ġneurons": 8286,
      "nut": 8287,
      "friend": 8288,
      "Ġfinish": 8289,
      "Ġtro": 8290,
      "ĠFour": 8291,
      "ĠIT": 8292,
      "Ġalgebra": 8293,
      "thm": 8294,
      "Ġreplaced": 8295,
      "oked": 8296,
      "ĠView": 8297,
      "system": 8298,
      "xiety": 8299,
      "Ġmeat": 8300,
      "Ġcentre": 8301,
      "Ġingred": 8302,
      "Ġvivo": 8303,
      "Ġ1999": 8304,
      "Ġbreath": 8305,
      "Output": 8306,
      "Mr": 8307,
      "dy": 8308,
      "layout": 8309,
      "Ġcompact": 8310,
      "Ġmatters": 8311,
      "spring": 8312,
      "2008": 8313,
      "Ġsubstance": 8314,
      "Ġscientific": 8315,
      "aren": 8316,
      "linear": 8317,
      "Ġgrown": 8318,
      "control": 8319,
      "ĠBas": 8320,
      "Hz": 8321,
      "Ġseat": 8322,
      "vant": 8323,
      "STR": 8324,
      "root": 8325,
      "hol": 8326,
      "Ġlisten": 8327,
      "ĠHuman": 8328,
      "values": 8329,
      "Ġswe": 8330,
      "Ġlayers": 8331,
      "ĠCamp": 8332,
      "ĠBack": 8333,
      "Ġvitamin": 8334,
      "chron": 8335,
      "ĠKey": 8336,
      "LC": 8337,
      "ulating": 8338,
      "ĠPR": 8339,
      "Ġaid": 8340,
      "Ġpopulations": 8341,
      "Ġphotos": 8342,
      "Ġpredicted": 8343,
      "Ġmedian": 8344,
      "Ġsector": 8345,
      "ĠProte": 8346,
      "ortion": 8347,
      "apse": 8348,
      "ĠAfrican": 8349,
      ")+": 8350,
      "ĠFrancis": 8351,
      "Ġmarriage": 8352,
      "eds": 8353,
      "++)": 8354,
      "Ġinitially": 8355,
      "DP": 8356,
      "Ġexamination": 8357,
      ";</": 8358,
      "Ġrepair": 8359,
      "~~~": 8360,
      "contin": 8361,
      "Ġfacility": 8362,
      "Ġtaste": 8363,
      "ĠHE": 8364,
      "Ġproved": 8365,
      "Ġinstrument": 8366,
      "rend": 8367,
      "Ġsolve": 8368,
      "MB": 8369,
      "ipl": 8370,
      "ffff": 8371,
      "Ġobser": 8372,
      "Ġflight": 8373,
      "ĠDu": 8374,
      "nel": 8375,
      "Ġparticle": 8376,
      "install": 8377,
      "Ġbusinesses": 8378,
      "Ġcorrectly": 8379,
      "\"]": 8380,
      "tag": 8381,
      "Ġeating": 8382,
      "NAME": 8383,
      "Ġoral": 8384,
      "Function": 8385,
      "ĠSpec": 8386,
      "ĠĠĠĠĠĠĠĠĠĠĠĠĠĠĠĠĠĠĠĠĠĠĠĠĠĠĠĠ": 8387,
      "Ġmapping": 8388,
      "Ġpix": 8389,
      "Ġmethyl": 8390,
      "Ġremark": 8391,
      "ijms": 8392,
      "Before": 8393,
      "Ġsorry": 8394,
      "Ġmutations": 8395,
      "Ġrestaurant": 8396,
      ";\\": 8397,
      "Ġfaster": 8398,
      "ĠSecurity": 8399,
      "Ġ${{\\": 8400,
      "Ġtranscript": 8401,
      "Ġemotional": 8402,
      "(_": 8403,
      "Ġhem": 8404,
      "alls": 8405,
      "Ġaccounts": 8406,
      "Ġgender": 8407,
      "Ġhaz": 8408,
      "Ġclosely": 8409,
      "Ġupdated": 8410,
      "Ġnative": 8411,
      "ĠCheck": 8412,
      "Ġ\"(": 8413,
      "sup": 8414,
      "Ġpip": 8415,
      "Ġthoughts": 8416,
      "icular": 8417,
      "ĠBi": 8418,
      "buf": 8419,
      "Ġextend": 8420,
      "ĠTR": 8421,
      "Ġflag": 8422,
      "media": 8423,
      "Ġsports": 8424,
      "007": 8425,
      "Ġrain": 8426,
      "Ġclar": 8427,
      "Ġcomprehens": 8428,
      "tings": 8429,
      "urally": 8430,
      "ĠRad": 8431,
      "Ġconsists": 8432,
      "ogenesis": 8433,
      "Ġantibodies": 8434,
      "DD": 8435,
      "Ġdress": 8436,
      "Ġ1998": 8437,
      "ĠPRO": 8438,
      "Ġcrack": 8439,
      "Ġabund": 8440,
      "Cons": 8441,
      "Ġasc": 8442,
      "ĠWill": 8443,
      "del": 8444,
      "ĠSol": 8445,
      "BE": 8446,
      "Ob": 8447,
      "Ġpig": 8448,
      "Ġchair": 8449,
      "Ġdiabetes": 8450,
      "Yeah": 8451,
      "ĠJose": 8452,
      "Ġopportunities": 8453,
      "}}^{": 8454,
      "qquad": 8455,
      "Ġadm": 8456,
      "Ġdenote": 8457,
      "è¯": 8458,
      "star": 8459,
      "km": 8460,
      "Ġdebate": 8461,
      "Although": 8462,
      "Label": 8463,
      "**(": 8464,
      "Ġsyndrome": 8465,
      "Ġrub": 8466,
      "Ġprimarily": 8467,
      "Ġtherape": 8468,
      "inates": 8469,
      "Ġcarb": 8470,
      "Ġfoods": 8471,
      "Ġlaun": 8472,
      "enter": 8473,
      "amination": 8474,
      "ĠAv": 8475,
      "ĠName": 8476,
      "IES": 8477,
      "ĠMount": 8478,
      "ampionship": 8479,
      "Ġchannels": 8480,
      "Ġencoding": 8481,
      "Ġhonest": 8482,
      "Ġraw": 8483,
      "Ġ53": 8484,
      "ãĤĭ": 8485,
      "160": 8486,
      "ĠEarth": 8487,
      "Ġhundreds": 8488,
      "Ġlaser": 8489,
      "Ġclimate": 8490,
      "Ġter": 8491,
      "coin": 8492,
      "Ġ99": 8493,
      "GC": 8494,
      "eper": 8495,
      "loc": 8496,
      "phen": 8497,
      "Ġblocks": 8498,
      "ACT": 8499,
      "Dr": 8500,
      "Ġtheoret": 8501,
      "ulture": 8502,
      "erman": 8503,
      "ãģ«": 8504,
      "Ġorganizations": 8505,
      "Ġbacteria": 8506,
      "}/": 8507,
      "Ġast": 8508,
      "eness": 8509,
      "ĠFore": 8510,
      "TYPE": 8511,
      "kt": 8512,
      "å®": 8513,
      "Ġpump": 8514,
      "Ġremote": 8515,
      "theless": 8516,
      "Ġloved": 8517,
      "}\\,": 8518,
      "sche": 8519,
      "Ġhelping": 8520,
      "ĠAppellant": 8521,
      "ĠMedical": 8522,
      "Ġtissues": 8523,
      "mult": 8524,
      "Ġclassification": 8525,
      "Ġpractical": 8526,
      "ĠVer": 8527,
      "Ġsignificance": 8528,
      "Link": 8529,
      "acellular": 8530,
      "split": 8531,
      "Ġhell": 8532,
      "Ġ58": 8533,
      "description": 8534,
      "2006": 8535,
      "jav": 8536,
      "äº": 8537,
      "ĠLee": 8538,
      "Ġelectrical": 8539,
      "Ġpictures": 8540,
      "Ġassumed": 8541,
      "Ġapparently": 8542,
      "idity": 8543,
      "unte": 8544,
      "Gener": 8545,
      "Ġsounds": 8546,
      "ĠMel": 8547,
      "Ġdefe": 8548,
      "header": 8549,
      "Ġmine": 8550,
      "ĠMad": 8551,
      "Ġplain": 8552,
      "Ġapproval": 8553,
      "Ġcloser": 8554,
      "Ġcustomer": 8555,
      "ĠAPI": 8556,
      "Ġconsequences": 8557,
      "Ġpreparation": 8558,
      "xe": 8559,
      "}+\\": 8560,
      "Ġpossession": 8561,
      "ĠStar": 8562,
      "Other": 8563,
      "ented": 8564,
      "Ġconstructed": 8565,
      "Ġinstitution": 8566,
      "ĊĠĠĠĠĠĠĠĠĠĠĠĠĠĠ": 8567,
      "aks": 8568,
      "reatment": 8569,
      "Ġreact": 8570,
      "Ġinternet": 8571,
      "Ġremoval": 8572,
      "Ġbars": 8573,
      "Ġsheet": 8574,
      "Ġclassical": 8575,
      "ERT": 8576,
      "iki": 8577,
      "Ġprevalence": 8578,
      "ĠSpring": 8579,
      "irus": 8580,
      "allow": 8581,
      "Ġvul": 8582,
      "Ġadopted": 8583,
      "GR": 8584,
      "]]": 8585,
      "Ġbott": 8586,
      "ĠPeter": 8587,
      "ĠAcc": 8588,
      "Ġconversion": 8589,
      "Ġorth": 8590,
      "outs": 8591,
      "Ġsubmitted": 8592,
      "Ġbodies": 8593,
      "rior": 8594,
      "Ġsimult": 8595,
      "Ġsuc": 8596,
      "Ġhotel": 8597,
      "Ġdinner": 8598,
      "ãģŁ": 8599,
      "Ġmask": 8600,
      "Target": 8601,
      "Ġcov": 8602,
      "ĠYOU": 8603,
      "Ġdescribes": 8604,
      "ĠIV": 8605,
      "Ġliability": 8606,
      "response": 8607,
      "ĠSign": 8608,
      "Ġlocations": 8609,
      "Ġguard": 8610,
      "ĠMean": 8611,
      "ĠpH": 8612,
      "sensors": 8613,
      "ĠText": 8614,
      "Ġ00": 8615,
      "Su": 8616,
      "tyle": 8617,
      "Ġprinciples": 8618,
      "Ġsong": 8619,
      "Ġsuspect": 8620,
      "Ġ57": 8621,
      "Ġpolitics": 8622,
      "Ġbra": 8623,
      "abin": 8624,
      "ĠOffic": 8625,
      "Ġtelling": 8626,
      "ĠmM": 8627,
      "mediate": 8628,
      "uy": 8629,
      "quare": 8630,
      "Ġdram": 8631,
      "acent": 8632,
      "erry": 8633,
      "Ġlies": 8634,
      "ĠĠĠĠĠĠĠĠĠĠĠĠĠĠĠĠĠĠĠĠĠĠĠĠĠĠĠ": 8635,
      "css": 8636,
      "ĠIF": 8637,
      "Ġspatial": 8638,
      "Ġregulations": 8639,
      "Ġmerely": 8640,
      "([": 8641,
      "Ġcaught": 8642,
      "Ġfashion": 8643,
      "Ġcas": 8644,
      "ayers": 8645,
      "Ġinjuries": 8646,
      "Ġenhanced": 8647,
      "war": 8648,
      "Ġwealth": 8649,
      "private": 8650,
      "Ġvoters": 8651,
      "Ġ1990": 8652,
      "Ġacids": 8653,
      "Ġserial": 8654,
      "mann": 8655,
      "Ġ\\-": 8656,
      "Ġregression": 8657,
      "Ġconviction": 8658,
      "ĠLouis": 8659,
      "Max": 8660,
      "ĠWho": 8661,
      "Ġtopic": 8662,
      "Ġpreced": 8663,
      "Ġmetast": 8664,
      "ais": 8665,
      "anol": 8666,
      "Ġ1000": 8667,
      "Ġargue": 8668,
      "Ġlunch": 8669,
      "ĠLife": 8670,
      "Ġfamiliar": 8671,
      "ĠĠĠĠĠĠĠĠĠĠĠĠĠĠĠĠĠĠĠĠĠĠĠĠĠ": 8672,
      "Ġhidden": 8673,
      "Min": 8674,
      "obj": 8675,
      "Ġrecover": 8676,
      "Ġconversation": 8677,
      "Ġworst": 8678,
      "Ġpit": 8679,
      "Ġcrystal": 8680,
      "Ġdiscovery": 8681,
      "600": 8682,
      "column": 8683,
      "Ġmaintenance": 8684,
      "called": 8685,
      "Length": 8686,
      "Ġviral": 8687,
      "ÐµÐ": 8688,
      "Ġimmediate": 8689,
      "Ġarrived": 8690,
      "Ġfly": 8691,
      "center": 8692,
      "blog": 8693,
      "Ġaccordance": 8694,
      "Ġstages": 8695,
      "quot": 8696,
      "Ġquiet": 8697,
      "aneously": 8698,
      "Mat": 8699,
      "ZE": 8700,
      "prot": 8701,
      "Ġabsolutely": 8702,
      "={": 8703,
      "vas": 8704,
      "Ġinjection": 8705,
      "Ġdisorders": 8706,
      "\"\"": 8707,
      "Ġfraud": 8708,
      "});": 8709,
      "ĠWilliams": 8710,
      "ifts": 8711,
      "aph": 8712,
      "bles": 8713,
      "born": 8714,
      "yles": 8715,
      "idents": 8716,
      "Ġ1997": 8717,
      "isters": 8718,
      "ĠÎ±": 8719,
      "Ġrecognition": 8720,
      "Ġtit": 8721,
      "Ġhelpful": 8722,
      "ĠAustralian": 8723,
      "eller": 8724,
      "kay": 8725,
      "ĠEqu": 8726,
      "Ġcomposite": 8727,
      "Layout": 8728,
      "ogg": 8729,
      "Ġessentially": 8730,
      "mosp": 8731,
      "isting": 8732,
      "Ġspoke": 8733,
      "ATH": 8734,
      "icide": 8735,
      "ez": 8736,
      "gments": 8737,
      "atural": 8738,
      "VD": 8739,
      "ĨĴ": 8740,
      "Ġthr": 8741,
      "ĠSP": 8742,
      ")*(-": 8743,
      "Ġillness": 8744,
      "Ġdogs": 8745,
      "ben": 8746,
      "Ġble": 8747,
      "Ġthermal": 8748,
      "ĠTrust": 8749,
      "Because": 8750,
      "element": 8751,
      "foot": 8752,
      "Ġclients": 8753,
      "Ġcultural": 8754,
      "Ġfiber": 8755,
      "kit": 8756,
      "Ġsurrounding": 8757,
      "AF": 8758,
      "isc": 8759,
      "}^{(": 8760,
      "PCR": 8761,
      "essions": 8762,
      "ĠTem": 8763,
      "Ġserving": 8764,
      "Ġpresum": 8765,
      "Ġsurgical": 8766,
      "Ġintegration": 8767,
      "Ġsynthesis": 8768,
      "Ġdual": 8769,
      "ĠGL": 8770,
      "Ġregime": 8771,
      "1000": 8772,
      "ĠMont": 8773,
      "Ġcommittee": 8774,
      "ascript": 8775,
      "Ġsituations": 8776,
      "Ġrequested": 8777,
      "rovers": 8778,
      "=\"#": 8779,
      "ĠThose": 8780,
      "frast": 8781,
      "ĠMuslim": 8782,
      "ĠSl": 8783,
      "Ġbigger": 8784,
      "icate": 8785,
      "Ġdecreasing": 8786,
      ".âĢĻ": 8787,
      "unit": 8788,
      "Ġmaintained": 8789,
      "OH": 8790,
      "Ġforum": 8791,
      "auge": 8792,
      "task": 8793,
      "Process": 8794,
      "teen": 8795,
      "Ġinnov": 8796,
      "IND": 8797,
      "Ġrisks": 8798,
      "otel": 8799,
      "Ġchapter": 8800,
      ")$$": 8801,
      "ĠCup": 8802,
      "ailability": 8803,
      "Ġearn": 8804,
      "ĠReview": 8805,
      "Results": 8806,
      "direct": 8807,
      "Init": 8808,
      "Description": 8809,
      "Ġepisode": 8810,
      "Ġdisplayed": 8811,
      "Ġcoc": 8812,
      "Ġpil": 8813,
      "Ġbought": 8814,
      "ATA": 8815,
      "ĠMrs": 8816,
      "ĠRichard": 8817,
      "ifact": 8818,
      "ĠWal": 8819,
      "Ġmodify": 8820,
      "Thread": 8821,
      "Ġthousand": 8822,
      "016": 8823,
      "Ġsurve": 8824,
      "rolled": 8825,
      "Ġillegal": 8826,
      "oxy": 8827,
      "Ġsick": 8828,
      "Ġspeaking": 8829,
      "Ġcharacteristic": 8830,
      "Ġ\\{": 8831,
      "Ġmanage": 8832,
      "everal": 8833,
      "Ġfellow": 8834,
      "ãĤĴ": 8835,
      "GET": 8836,
      "Ġtel": 8837,
      "Ġtail": 8838,
      "Ġherself": 8839,
      "ĠDirector": 8840,
      "Ã§": 8841,
      "ĠSecretary": 8842,
      "uzz": 8843,
      "Ġtells": 8844,
      "Ġseparated": 8845,
      "Ġpp": 8846,
      "ĠLib": 8847,
      "Ġdesire": 8848,
      "ĠBet": 8849,
      "Ġcurves": 8850,
      "types": 8851,
      "liament": 8852,
      "Ġrespective": 8853,
      "Ġcrucial": 8854,
      "Ġcategories": 8855,
      "ĠDC": 8856,
      "ĠTra": 8857,
      "estion": 8858,
      "Ġrid": 8859,
      "float": 8860,
      "Ġcontainer": 8861,
      "Ġdivers": 8862,
      "URL": 8863,
      "terday": 8864,
      "///": 8865,
      "Ġinstruction": 8866,
      "Ġkernel": 8867,
      "Ġbias": 8868,
      "OCK": 8869,
      "Ġkick": 8870,
      "Child": 8871,
      "ameters": 8872,
      "Ġreactions": 8873,
      "ĠJo": 8874,
      "2007": 8875,
      "\\*\\*": 8876,
      "Work": 8877,
      "reams": 8878,
      "LECT": 8879,
      "Who": 8880,
      "stant": 8881,
      "Ġterminal": 8882,
      "onym": 8883,
      "Ġ85": 8884,
      "esides": 8885,
      "Ġdrawn": 8886,
      "III": 8887,
      "Ġarrang": 8888,
      "Gu": 8889,
      "Options": 8890,
      "Ġ110": 8891,
      "ductor": 8892,
      "bottom": 8893,
      "Mult": 8894,
      "avel": 8895,
      "iger": 8896,
      "Ġ96": 8897,
      "double": 8898,
      "Ġnm": 8899,
      "Str": 8900,
      "Ġâī": 8901,
      "Ġobviously": 8902,
      "BB": 8903,
      "Sort": 8904,
      "Ġfort": 8905,
      "Ġtwenty": 8906,
      "Deb": 8907,
      "Local": 8908,
      "=\"../../": 8909,
      "Ġassign": 8910,
      "Ġstatistics": 8911,
      "Ġbiom": 8912,
      "Ġpurs": 8913,
      "txt": 8914,
      "click": 8915,
      "fficients": 8916,
      "Ġrequests": 8917,
      "Ġfinds": 8918,
      "ilation": 8919,
      "Ġalpha": 8920,
      "ĠThanks": 8921,
      "lectric": 8922,
      "Ġcounts": 8923,
      "aded": 8924,
      "Ġprovisions": 8925,
      "uable": 8926,
      "vart": 8927,
      "lee": 8928,
      "]);": 8929,
      "Ñı": 8930,
      "ĠWood": 8931,
      "Ġleadership": 8932,
      "Ġsupra": 8933,
      "ĠLu": 8934,
      "Ġneck": 8935,
      "Ġiniti": 8936,
      "ĠReport": 8937,
      "Ġfeedback": 8938,
      "Right": 8939,
      "ffered": 8940,
      "pers": 8941,
      "Ġmodes": 8942,
      "Down": 8943,
      "SM": 8944,
      "Ġske": 8945,
      "Ġosc": 8946,
      "Ġrend": 8947,
      "Ġintegrated": 8948,
      "Ġcro": 8949,
      "second": 8950,
      "Ġbeam": 8951,
      "ĠSocial": 8952,
      "Ġassault": 8953,
      "legate": 8954,
      "ĠColor": 8955,
      "ĠâĻ": 8956,
      "$$\\\\": 8957,
      "Every": 8958,
      "Ġbin": 8959,
      "Ġtumors": 8960,
      "âĢĺ": 8961,
      "Ġposts": 8962,
      "Ġtaxes": 8963,
      "Ġblow": 8964,
      "ĠRT": 8965,
      "Ġcontem": 8966,
      "cussion": 8967,
      "Ġcoast": 8968,
      "ĠPolice": 8969,
      "Ġultimately": 8970,
      "Ver": 8971,
      "Ġshooting": 8972,
      "textbf": 8973,
      "Ġguidelines": 8974,
      "endants": 8975,
      "Ġtreatments": 8976,
      "Cor": 8977,
      "Ġcreation": 8978,
      "ropy": 8979,
      "Ġflav": 8980,
      "Ġiter": 8981,
      "%),": 8982,
      "Ġinequ": 8983,
      "Ġlob": 8984,
      "Ġourselves": 8985,
      "ader": 8986,
      "Ġidentical": 8987,
      "vol": 8988,
      "pert": 8989,
      "åħ": 8990,
      "Ġgro": 8991,
      "Dev": 8992,
      "Ġsight": 8993,
      "asek": 8994,
      "ĠKh": 8995,
      ")|": 8996,
      "020": 8997,
      "Ġthor": 8998,
      "iah": 8999,
      "Ġod": 9000,
      "Ġfurn": 9001,
      "Search": 9002,
      "mi": 9003,
      "ĠCall": 9004,
      "Ġcompliance": 9005,
      "Oper": 9006,
      "opping": 9007,
      "utory": 9008,
      "ĠMult": 9009,
      "strong": 9010,
      "ĠME": 9011,
      "ibilities": 9012,
      "Ġretail": 9013,
      "Ġneighborhood": 9014,
      "Ġ1996": 9015,
      "idential": 9016,
      "ĠRoad": 9017,
      "gence": 9018,
      "Ã£": 9019,
      "Ġpy": 9020,
      "Ġeigen": 9021,
      "minus": 9022,
      "Ġprompt": 9023,
      "Ġyouth": 9024,
      "Ġintegral": 9025,
      "Ġdeclared": 9026,
      "ĠNon": 9027,
      "Ġpicking": 9028,
      "Ġarrested": 9029,
      "bel": 9030,
      "ĠSpe": 9031,
      "Ġheader": 9032,
      "ventions": 9033,
      "Ġmedicine": 9034,
      "Ġexecutive": 9035,
      "Sm": 9036,
      "Supplementary": 9037,
      "Ġexplanation": 9038,
      "Ġans": 9039,
      "Ġappell": 9040,
      "Ġimagine": 9041,
      "Ġcognitive": 9042,
      "][@": 9043,
      "heta": 9044,
      "Ġepit": 9045,
      "DL": 9046,
      "}|": 9047,
      "Ġodd": 9048,
      "Ġpayments": 9049,
      "Ġpointed": 9050,
      "Ġfant": 9051,
      "ĠCorp": 9052,
      "gypt": 9053,
      "Ġacet": 9054,
      "Ġtube": 9055,
      "Ġcopyright": 9056,
      "inition": 9057,
      "Ġreporting": 9058,
      "Ġlattice": 9059,
      "Ġstimulation": 9060,
      "even": 9061,
      "Ġ../": 9062,
      "pdf": 9063,
      "Ġstores": 9064,
      "Ġ66": 9065,
      "ĠĠĠĠĠĠĠĠĠĠĠĠĠĠĠĠĠĠĠĠĠĠĠĠĠĠ": 9066,
      "<?": 9067,
      "ĠLake": 9068,
      "Ġpermit": 9069,
      "iner": 9070,
      "Ġextr": 9071,
      "cribed": 9072,
      "eting": 9073,
      "ĠModel": 9074,
      "matrix": 9075,
      "Ġmomentum": 9076,
      "scr": 9077,
      "Ġtotally": 9078,
      "uting": 9079,
      "ishment": 9080,
      "Ġcollabor": 9081,
      "Ġrows": 9082,
      "ĠMur": 9083,
      "ÑĮ": 9084,
      "Ġanyway": 9085,
      "Ġanxiety": 9086,
      "ĠDemocrats": 9087,
      "None": 9088,
      "æĸ": 9089,
      "%;": 9090,
      "Ġpour": 9091,
      "WS": 9092,
      "Ġwriter": 9093,
      "Ġimplied": 9094,
      "Open": 9095,
      "iations": 9096,
      "razil": 9097,
      "Ġath": 9098,
      "2005": 9099,
      "ĠÎ²": 9100,
      "ĠWall": 9101,
      "Ġ59": 9102,
      "2001": 9103,
      "ĠGrand": 9104,
      "Ġweather": 9105,
      "à¸": 9106,
      "ĠØ": 9107,
      "Ġproliferation": 9108,
      "ĠLine": 9109,
      "]$": 9110,
      "ixed": 9111,
      "ĠZe": 9112,
      "Ġsister": 9113,
      "Ġscatter": 9114,
      "axis": 9115,
      "rif": 9116,
      "seb": 9117,
      "Ġprohib": 9118,
      "åĲ": 9119,
      "Ġreads": 9120,
      "Ġexamine": 9121,
      "ĠProv": 9122,
      "Ġintelligence": 9123,
      "ora": 9124,
      "ĠFil": 9125,
      "Ġargued": 9126,
      "enth": 9127,
      "Ġloan": 9128,
      "Ġbundle": 9129,
      "Ġtransformation": 9130,
      "ARE": 9131,
      "Ġglucose": 9132,
      "ĠBit": 9133,
      "Ġrenal": 9134,
      "ĠLand": 9135,
      "Ġtherapeutic": 9136,
      "Mar": 9137,
      "Red": 9138,
      "ĠFire": 9139,
      "Ġ*)": 9140,
      "Ġplanned": 9141,
      "athered": 9142,
      "ĠRoy": 9143,
      "Ġfamous": 9144,
      "Ã³n": 9145,
      "bool": 9146,
      "Ġyounger": 9147,
      "ĠHamilton": 9148,
      "Ġwrt": 9149,
      "ĠHy": 9150,
      "service": 9151,
      "Ġadvoc": 9152,
      "Ġpars": 9153,
      "Ġnormally": 9154,
      "orne": 9155,
      "Ġallerg": 9156,
      "Ġgarden": 9157,
      "ĠTown": 9158,
      "Ġ\\>": 9159,
      "ympt": 9160,
      "bling": 9161,
      "untime": 9162,
      ",'": 9163,
      "Ġgast": 9164,
      "Ġdriven": 9165,
      "vartheta": 9166,
      "Ġlig": 9167,
      "\\]),": 9168,
      "Ġdemocr": 9169,
      "Ġlogic": 9170,
      "Ġtrigger": 9171,
      "Ġhero": 9172,
      "John": 9173,
      "kes": 9174,
      "Ġquad": 9175,
      "prod": 9176,
      "ĠApple": 9177,
      "Ġhate": 9178,
      "Ġrail": 9179,
      "Ġexperts": 9180,
      "BR": 9181,
      "Ġpseud": 9182,
      "opp": 9183,
      "icing": 9184,
      "Ġgift": 9185,
      "Ġkinds": 9186,
      "Ġwonderful": 9187,
      "ĠPower": 9188,
      "ĠVirgin": 9189,
      "Ġgod": 9190,
      "ĠBook": 9191,
      "urns": 9192,
      "ĊĊĠĠ": 9193,
      "Ġfails": 9194,
      "Ġdeaths": 9195,
      "ĠFund": 9196,
      "Ġrecording": 9197,
      "Ġcarrying": 9198,
      "Attribute": 9199,
      "Ġven": 9200,
      "FE": 9201,
      "riev": 9202,
      "Ġsurfaces": 9203,
      "ĠCommon": 9204,
      "cers": 9205,
      "ĠServices": 9206,
      "eck": 9207,
      "ULT": 9208,
      "Address": 9209,
      "omatic": 9210,
      "Ġruling": 9211,
      "]\\": 9212,
      "æķ": 9213,
      "Ġweapons": 9214,
      "ila": 9215,
      "Ġcond": 9216,
      "ĠChief": 9217,
      "HC": 9218,
      "Ġrig": 9219,
      "################": 9220,
      "Ġoscill": 9221,
      "čĊĉĉ": 9222,
      "vector": 9223,
      "ĠHome": 9224,
      "Ġcontrovers": 9225,
      "Ġdimensions": 9226,
      "Ġcorrelated": 9227,
      "}$$\\": 9228,
      "azine": 9229,
      "ĠInterest": 9230,
      "Ġbread": 9231,
      "ĠAff": 9232,
      "ensus": 9233,
      "Ġacquired": 9234,
      "Ġstead": 9235,
      "ĠDevelopment": 9236,
      "Ġmechanical": 9237,
      "yes": 9238,
      "Ġsetup": 9239,
      "Ġpackages": 9240,
      "Ġneutral": 9241,
      "ĠEducation": 9242,
      "Ġrealize": 9243,
      "Ġboolean": 9244,
      "Ġsuperior": 9245,
      "Ġclock": 9246,
      "Ġdenomin": 9247,
      "fortunately": 9248,
      "Ġnurs": 9249,
      "ĠSk": 9250,
      "Ġshop": 9251,
      ":(": 9252,
      "terior": 9253,
      "Ġpurchased": 9254,
      "west": 9255,
      "ĠLi": 9256,
      "ĠNov": 9257,
      "ĠJournal": 9258,
      "operation": 9259,
      "Ġrotation": 9260,
      "Ġisland": 9261,
      "etal": 9262,
      "ĠSil": 9263,
      "ĠLabor": 9264,
      "issions": 9265,
      "Ġmatches": 9266,
      "Ġplenty": 9267,
      "Resource": 9268,
      "frastructure": 9269,
      "Ġ$(\\": 9270,
      "ĠOper": 9271,
      "angasek": 9272,
      "Ġgrade": 9273,
      "Ġsharing": 9274,
      "Also": 9275,
      "âĶĢ": 9276,
      "rics": 9277,
      "Ġcalculation": 9278,
      "HA": 9279,
      "VAL": 9280,
      "ĠCR": 9281,
      "ĠMax": 9282,
      "Ġspectra": 9283,
      "filter": 9284,
      "Command": 9285,
      "=(": 9286,
      "DI": 9287,
      "Ġvertical": 9288,
      "ĠCare": 9289,
      "Ġhappening": 9290,
      "Ġpathways": 9291,
      "Ġpromise": 9292,
      "connect": 9293,
      "Good": 9294,
      "Ġperipher": 9295,
      "Connection": 9296,
      "Ġãģ": 9297,
      "ĠAdditionally": 9298,
      "update": 9299,
      "si": 9300,
      "âķ": 9301,
      "Ġbrowser": 9302,
      "2004": 9303,
      "Ġaccommod": 9304,
      "Null": 9305,
      "Ġrect": 9306,
      "Ġ\\;": 9307,
      "rivial": 9308,
      "Ġflux": 9309,
      "hab": 9310,
      "Ġ<-": 9311,
      "Ke": 9312,
      "ĠMa": 9313,
      "Ġchart": 9314,
      "Ġ400": 9315,
      "Ġcomplicated": 9316,
      "ĠVersion": 9317,
      "UP": 9318,
      "home": 9319,
      "Ġincidence": 9320,
      "ĠĠĠĠĠĠĠĠĠĠĠĠĠĠĠĠĠĠĠĠĠĠĠĠĠĠĠĠĠ": 9321,
      "Ð¸Ð": 9322,
      "Ġjourney": 9323,
      "Many": 9324,
      "Ġatmosp": 9325,
      "enger": 9326,
      "ĠPak": 9327,
      "ĠDO": 9328,
      "Ġacknowled": 9329,
      "stone": 9330,
      "Ġwindows": 9331,
      "ĠDaniel": 9332,
      "Ġfabric": 9333,
      "Project": 9334,
      "ĠFre": 9335,
      "omorphism": 9336,
      "Ġmic": 9337,
      "Ġcolors": 9338,
      "notation": 9339,
      "Ġattempts": 9340,
      "Ġhypothesis": 9341,
      "Ġapoptosis": 9342,
      "Ġradical": 9343,
      "&#": 9344,
      "Ġmanip": 9345,
      "Ġextensive": 9346,
      "Ġrecognize": 9347,
      "Ġuniversity": 9348,
      "Ident": 9349,
      "rons": 9350,
      "Ã©s": 9351,
      "close": 9352,
      "Ġcontents": 9353,
      "Ġfighting": 9354,
      "pa": 9355,
      "'$": 9356,
      "vals": 9357,
      "800": 9358,
      "Listener": 9359,
      "Ġvide": 9360,
      "Ġdegrad": 9361,
      "```": 9362,
      "ĠItaly": 9363,
      "haust": 9364,
      "ĠOhio": 9365,
      "Ġforming": 9366,
      "Ġcarcin": 9367,
      "Ġvehicles": 9368,
      "iture": 9369,
      "Ġscenario": 9370,
      "Ġhun": 9371,
      "Ġwinning": 9372,
      "sur": 9373,
      "Ġknowing": 9374,
      "ĠDM": 9375,
      "roud": 9376,
      "Ġpermission": 9377,
      "Ġcoefficients": 9378,
      "ĠTim": 9379,
      "Ġfeels": 9380,
      "037": 9381,
      "eties": 9382,
      "-----------": 9383,
      "Ġsomewhat": 9384,
      "Ġregistered": 9385,
      "Mem": 9386,
      "Ġmutant": 9387,
      "emia": 9388,
      "Ġsimulation": 9389,
      "ĠMicrosoft": 9390,
      "ussian": 9391,
      "Ġrapidly": 9392,
      "apes": 9393,
      "approx": 9394,
      "ĠAri": 9395,
      "Ġincreasingly": 9396,
      "Ġrealized": 9397,
      "Ġpowers": 9398,
      "Ġalloc": 9399,
[...]
